<pad>	0
<unk>	0
<s>	0
</s>	0
▁t	-0
he	-1
▁a	-2
in	-3
▁the	-4
er	-5
▁s	-6
on	-7
re	-8
▁c	-9
is	-10
ed	-11
▁w	-12
▁o	-13
▁b	-14
en	-15
it	-16
an	-17
at	-18
or	-19
▁f	-20
▁p	-21
es	-22
▁m	-23
ar	-24
al	-25
as	-26
▁in	-27
▁h	-28
▁an	-29
▁of	-30
▁d	-31
ro	-32
▁l	-33
ic	-34
ing	-35
▁and	-36
▁to	-37
ion	-38
▁n	-39
ou	-40
▁is	-41
il	-42
▁re	-43
el	-44
ent	-45
▁g	-46
▁he	-47
▁was	-48
▁th	-49
le	-50
am	-51
om	-52
st	-53
▁e	-54
ol	-55
ly	-56
ct	-57
un	-58
▁al	-59
ver	-60
▁it	-61
ur	-62
▁st	-63
et	-64
ad	-65
id	-66
ot	-67
ow	-68
im	-69
ch	-70
us	-71
▁for	-72
▁on	-73
▁be	-74
ir	-75
ig	-76
ve	-77
ation	-78
ter	-79
ay	-80
▁are	-81
▁r	-82
ce	-83
▁as	-84
ut	-85
▁con	-86
ul	-87
ith	-88
her	-89
and	-90
▁his	-91
ain	-92
▁v	-93
▁with	-94
so	-95
se	-96
▁by	-97
▁ch	-98
▁pro	-99
ac	-100
ers	-101
▁k	-102
▁com	-103
ag	-104
▁se	-105
▁at	-106
ri	-107
ist	-108
um	-109
em	-110
▁j	-111
▁also	-112
▁this	-113
est	-114
ort	-115
oun	-116
od	-117
if	-118
▁y	-119
▁de	-120
▁ne	-121
▁un	-122
ity	-123
iv	-124
ill	-125
oc	-126
ies	-127
ab	-128
op	-129
ap	-130
▁su	-131
all	-132
ated	-133
rom	-134
art	-135
res	-136
qu	-137
os	-138
ud	-139
▁or	-140
ere	-141
▁ex	-142
igh	-143
▁mo	-144
▁pl	-145
▁has	-146
ant	-147
▁sh	-148
pe	-149
▁were	-150
▁wh	-151
ess	-152
ate	-153
ally	-154
ak	-155
▁from	-156
ard	-157
ame	-158
▁tr	-159
▁ro	-160
▁that	-161
ive	-162
th	-163
red	-164
ip	-165
end	-166
ld	-167
▁le	-168
our	-169
▁not	-170
ge	-171
ect	-172
gh	-173
▁us	-174
▁man	-175
ell	-176
▁ha	-177
ong	-178
▁ar	-179
up	-180
ment	-181
ther	-182
ian	-183
▁wor	-184
ast	-185
ia	-186
▁tw	-187
▁she	-188
ra	-189
▁cl	-190
ous	-191
▁they	-192
ie	-193
wn	-194
cl	-195
▁its	-196
▁comp	-197
ome	-198
▁af	-199
ren	-200
ine	-201
ater	-202
ack	-203
ial	-204
ish	-205
▁have	-206
ub	-207
▁ad	-208
ight	-209
per	-210
ber	-211
og	-212
▁cont	-213
own	-214
▁can	-215
▁sp	-216
ions	-217
▁there	-218
▁all	-219
ust	-220
▁one	-221
ary	-222
cc	-223
▁ser	-224
▁en	-225
▁two	-226
av	-227
▁her	-228
pp	-229
▁comm	-230
▁part	-231
der	-232
ok	-233
age	-234
ans	-235
ure	-236
ount	-237
ical	-238
ear	-239
ore	-240
▁sch	-241
▁col	-242
ool	-243
ree	-244
ide	-245
uc	-246
▁new	-247
▁after	-248
ire	-249
ass	-250
▁had	-251
ric	-252
▁mar	-253
ry	-254
ugh	-255
ord	-256
iver	-257
▁res	-258
▁sc	-259
ult	-260
rit	-261
▁fir	-262
▁other	-263
pt	-264
ign	-265
▁int	-266
iz	-267
▁been	-268
▁loc	-269
ail	-270
ice	-271
orn	-272
▁bo	-273
▁their	-274
ations	-275
▁co	-276
fer	-277
und	-278
ved	-279
▁im	-280
ach	-281
▁school	-282
▁first	-283
ang	-284
▁play	-285
▁am	-286
▁te	-287
pl	-288
land	-289
▁me	-290
clud	-291
▁tim	-292
orm	-293
▁ab	-294
ond	-295
▁how	-296
ib	-297
▁these	-298
ich	-299
▁rec	-300
ks	-301
▁bec	-302
ild	-303
▁go	-304
ely	-305
ied	-306
▁el	-307
▁kn	-308
▁i	-309
▁includ	-310
▁no	-311
act	-312
ue	-313
▁year	-314
▁per	-315
able	-316
ition	-317
out	-318
uct	-319
▁but	-320
▁ind	-321
▁some	-322
ens	-323
ite	-324
▁dis	-325
▁par	-326
hed	-327
▁fl	-328
ts	-329
▁inter	-330
ould	-331
▁we	-332
▁des	-333
▁most	-334
ound	-335
▁whe	-336
ors	-337
▁fe	-338
ke	-339
ff	-340
are	-341
ents	-342
▁many	-343
▁form	-344
ence	-345
▁bl	-346
ace	-347
▁ev	-348
ever	-349
▁count	-350
▁used	-351
ory	-352
▁up	-353
ons	-354
ance	-355
▁later	-356
vel	-357
one	-358
▁ag	-359
▁gr	-360
▁however	-361
▁spe	-362
ates	-363
▁town	-364
▁do	-365
▁qu	-366
▁jo	-367
▁gro	-368
ings	-369
▁br	-370
▁pr	-371
▁act	-372
ost	-373
▁cons	-374
▁ver	-375
oth	-376
man	-377
▁work	-378
te	-379
▁bro	-380
▁att	-381
les	-382
▁him	-383
▁out	-384
port	-385
ade	-386
▁off	-387
ood	-388
ubl	-389
▁gre	-390
▁mus	-391
▁sy	-392
amp	-393
urn	-394
uring	-395
▁pre	-396
form	-397
▁car	-398
ten	-399
▁so	-400
▁time	-401
ind	-402
ted	-403
aw	-404
▁reg	-405
▁three	-406
ress	-407
▁into	-408
ys	-409
▁nort	-410
ular	-411
▁sub	-412
▁you	-413
▁gen	-414
▁bu	-415
way	-416
oll	-417
▁prod	-418
▁sever	-419
ational	-420
▁ed	-421
▁city	-422
▁dist	-423
▁nam	-424
▁over	-425
ake	-426
ious	-427
▁ph	-428
▁only	-429
▁rem	-430
▁thro	-431
old	-432
▁known	-433
▁fr	-434
▁sou	-435
▁may	-436
ath	-437
anc	-438
ase	-439
▁then	-440
▁high	-441
▁more	-442
ased	-443
ton	-444
▁eng	-445
ited	-446
▁cent	-447
▁during	-448
▁stud	-449
ile	-450
ick	-451
ily	-452
iss	-453
▁pe	-454
▁mem	-455
▁sm	-456
▁several	-457
▁call	-458
▁both	-459
▁pol	-460
▁sec	-461
▁lar	-462
▁name	-463
▁ap	-464
▁publ	-465
▁through	-466
▁char	-467
▁app	-468
ep	-469
▁will	-470
als	-471
ivers	-472
ward	-473
rib	-474
▁born	-475
hip	-476
▁under	-477
gan	-478
▁cur	-479
▁em	-480
▁acc	-481
▁pres	-482
ont	-483
▁ac	-484
ft	-485
▁lo	-486
enc	-487
▁ma	-488
▁main	-489
▁ret	-490
rent	-491
▁po	-492
▁fil	-493
▁sur	-494
ix	-495
▁became	-496
▁rel	-497
ually	-498
▁which	-499
▁named	-500
hes	-501
ities	-502
▁colle	-503
▁serv	-504
▁ter	-505
▁li	-506
ains	-507
▁area	-508
▁war	-509
ters	-510
ollow	-511
▁fam	-512
▁years	-513
▁num	-514
▁located	-515
▁spec	-516
▁str	-517
ms	-518
ough	-519
ics	-520
ph	-521
▁sa	-522
▁min	-523
we	-524
ather	-525
▁four	-526
io	-527
▁follow	-528
▁dif	-529
ins	-530
ived	-531
other	-532
▁now	-533
ific	-534
▁var	-535
iel	-536
▁air	-537
gr	-538
▁gener	-539
▁who	-540
ife	-541
tle	-542
▁met	-543
ne	-544
▁fin	-545
▁prov	-546
ident	-547
tern	-548
▁orig	-549
▁county	-550
▁univers	-551
▁called	-552
▁bet	-553
▁rep	-554
▁found	-555
ative	-556
str	-557
▁when	-558
▁mod	-559
olog	-560
▁pop	-561
▁would	-562
▁ent	-563
▁trans	-564
ose	-565
▁child	-566
▁alb	-567
▁north	-568
ject	-569
▁well	-570
▁origin	-571
▁ear	-572
ished	-573
ures	-574
round	-575
ug	-576
▁oper	-577
▁made	-578
ci	-579
▁art	-580
▁appe	-581
▁set	-582
▁sim	-583
ict	-584
▁writ	-585
air	-586
▁add	-587
ual	-588
eric	-589
▁mon	-590
ral	-591
ained	-592
▁cap	-593
▁bel	-594
▁gu	-595
▁south	-596
int	-597
ines	-598
▁commun	-599
ists	-600
▁cre	-601
▁hist	-602
▁song	-603
▁inv	-604
▁current	-605
▁record	-606
▁own	-607
aus	-608
▁supp	-609
▁inc	-610
ract	-611
ars	-612
▁long	-613
▁second	-614
its	-615
▁music	-616
▁university	-617
▁group	-618
▁them	-619
ield	-620
fore	-621
elf	-622
min	-623
ended	-624
▁album	-625
▁dep	-626
ays	-627
ered	-628
vern	-629
led	-630
▁each	-631
velop	-632
ley	-633
▁often	-634
ried	-635
▁compan	-636
ism	-637
irect	-638
▁differ	-639
▁feat	-640
stem	-641
▁pos	-642
▁contin	-643
▁show	-644
ives	-645
▁such	-646
ck	-647
▁av	-648
ank	-649
▁very	-650
▁elect	-651
▁near	-652
▁small	-653
▁sing	-654
ros	-655
ert	-656
ale	-657
ams	-658
ouse	-659
iet	-660
▁med	-661
ful	-662
▁system	-663
ork	-664
▁cr	-665
▁park	-666
▁govern	-667
▁sl	-668
▁dr	-669
▁again	-670
ently	-671
▁direct	-672
▁def	-673
▁ty	-674
inc	-675
▁public	-676
▁develop	-677
▁film	-678
▁peop	-679
eter	-680
▁river	-681
▁about	-682
hn	-683
aint	-684
▁ext	-685
▁world	-686
ise	-687
▁z	-688
ock	-689
ands	-690
ating	-691
▁dec	-692
▁than	-693
els	-694
▁did	-695
▁ever	-696
▁book	-697
▁ob	-698
▁vill	-699
ince	-700
▁use	-701
▁design	-702
ically	-703
ional	-704
ann	-705
▁americ	-706
ger	-707
▁include	-708
rict	-709
▁my	-710
ty	-711
cept	-712
▁rele	-713
az	-714
ized	-715
enn	-716
▁mat	-717
ween	-718
▁imp	-719
ev	-720
▁bar	-721
▁bus	-722
augh	-723
ants	-724
ided	-725
bers	-726
▁national	-727
ah	-728
▁old	-729
▁sign	-730
▁between	-731
▁occ	-732
pen	-733
▁people	-734
ern	-735
▁state	-736
▁perform	-737
▁lit	-738
▁head	-739
▁red	-740
ier	-741
ision	-742
▁any	-743
▁end	-744
ower	-745
▁family	-746
▁maj	-747
▁sw	-748
▁john	-749
▁played	-750
ues	-751
▁inst	-752
▁still	-753
▁back	-754
ired	-755
uction	-756
▁home	-757
▁build	-758
ames	-759
iew	-760
▁west	-761
ared	-762
▁aut	-763
ets	-764
urch	-765
ange	-766
▁hel	-767
▁station	-768
ible	-769
▁exp	-770
ured	-771
▁inf	-772
▁run	-773
▁soc	-774
▁fo	-775
▁gl	-776
ages	-777
▁common	-778
▁ge	-779
son	-780
▁ke	-781
▁major	-782
▁consid	-783
omet	-784
▁number	-785
ball	-786
▁cor	-787
▁cour	-788
▁children	-789
ural	-790
▁said	-791
▁local	-792
▁same	-793
ised	-794
▁har	-795
uced	-796
uch	-797
ird	-798
oy	-799
ments	-800
▁rece	-801
ccess	-802
▁what	-803
ices	-804
ason	-805
▁pri	-806
▁before	-807
▁cal	-808
▁different	-809
▁college	-810
▁son	-811
ides	-812
▁lead	-813
gest	-814
ull	-815
▁comple	-816
▁served	-817
xt	-818
▁port	-819
by	-820
ink	-821
▁while	-822
day	-823
co	-824
▁ass	-825
ark	-826
ction	-827
▁desc	-828
▁water	-829
▁like	-830
▁rev	-831
▁island	-832
▁down	-833
▁within	-834
▁val	-835
cess	-836
▁district	-837
erson	-838
osed	-839
▁following	-840
ross	-841
▁prim	-842
ble	-843
▁intern	-844
▁sk	-845
▁another	-846
▁mark	-847
rap	-848
▁progr	-849
▁pat	-850
▁care	-851
ves	-852
ued	-853
▁pa	-854
▁success	-855
▁never	-856
▁pass	-857
ined	-858
▁stre	-859
▁bur	-860
▁house	-861
▁ger	-862
▁where	-863
▁class	-864
▁far	-865
▁camp	-866
vers	-867
ital	-868
akes	-869
rol	-870
get	-871
▁youn	-872
▁company	-873
▁law	-874
▁great	-875
▁div	-876
▁che	-877
por	-878
ribut	-879
iam	-880
▁village	-881
inn	-882
▁short	-883
▁eff	-884
ting	-885
rop	-886
ister	-887
▁being	-888
▁game	-889
▁result	-890
▁return	-891
br	-892
▁event	-893
▁currently	-894
▁open	-895
▁series	-896
▁states	-897
ounc	-898
▁ins	-899
ane	-900
▁line	-901
▁chr	-902
ik	-903
▁team	-904
▁tre	-905
▁organ	-906
▁just	-907
▁life	-908
lish	-909
ium	-910
▁est	-911
▁united	-912
▁father	-913
▁day	-914
▁fre	-915
ave	-916
ement	-917
▁church	-918
▁band	-919
▁bre	-920
▁large	-921
▁charact	-922
▁wom	-923
▁mil	-924
ov	-925
ats	-926
▁partic	-927
ility	-928
▁road	-929
▁community	-930
▁six	-931
▁five	-932
▁towns	-933
uss	-934
▁club	-935
▁popular	-936
▁somet	-937
ior	-938
▁lang	-939
▁wal	-940
ob	-941
▁educ	-942
▁ref	-943
▁saint	-944
▁dem	-945
▁black	-946
▁conf	-947
▁rail	-948
▁ste	-949
ille	-950
ilt	-951
▁list	-952
▁included	-953
ash	-954
amm	-955
▁leg	-956
▁rest	-957
▁east	-958
▁arm	-959
▁every	-960
▁es	-961
▁polit	-962
▁support	-963
▁see	-964
▁trad	-965
con	-966
ause	-967
▁last	-968
hen	-969
aced	-970
▁land	-971
▁could	-972
▁bas	-973
ology	-974
▁early	-975
▁mount	-976
ute	-977
ling	-978
▁former	-979
ving	-980
▁much	-981
ately	-982
ina	-983
▁sit	-984
▁mag	-985
▁foot	-986
▁aust	-987
▁import	-988
▁ir	-989
ple	-990
▁prof	-991
▁began	-992
▁vis	-993
▁members	-994
bur	-995
▁since	-996
▁sol	-997
▁start	-998
▁tit	-999
▁offic	-1000
▁fore	-1001
▁white	-1002
▁member	-1003
▁miss	-1004
uro	-1005
▁married	-1006
▁langu	-1007
ven	-1008
▁addition	-1009
pect	-1010
▁if	-1011
ces	-1012
ows	-1013
arch	-1014
▁crit	-1015
vent	-1016
▁received	-1017
▁mid	-1018
▁brother	-1019
ott	-1020
ians	-1021
▁government	-1022
ries	-1023
hing	-1024
▁bat	-1025
▁brit	-1026
▁won	-1027
erv	-1028
▁award	-1029
ator	-1030
ively	-1031
iness	-1032
▁conc	-1033
▁along	-1034
▁died	-1035
▁american	-1036
▁place	-1037
▁hum	-1038
▁ann	-1039
ford	-1040
ped	-1041
▁around	-1042
▁left	-1043
▁histor	-1044
▁vers	-1045
▁stand	-1046
bo	-1047
▁tel	-1048
▁typ	-1049
ution	-1050
▁party	-1051
▁rom	-1052
chn	-1053
ec	-1054
idge	-1055
▁based	-1056
nt	-1057
itions	-1058
ilar	-1059
▁german	-1060
▁english	-1061
▁among	-1062
▁avail	-1063
▁del	-1064
▁times	-1065
ime	-1066
▁death	-1067
▁general	-1068
▁post	-1069
imes	-1070
ature	-1071
ody	-1072
▁took	-1073
▁je	-1074
ison	-1075
ster	-1076
ograp	-1077
▁refer	-1078
aking	-1079
▁even	-1080
▁service	-1081
▁similar	-1082
▁good	-1083
urs	-1084
quently	-1085
▁usually	-1086
ene	-1087
▁considered	-1088
yl	-1089
▁york	-1090
▁original	-1091
▁best	-1092
▁requ	-1093
▁cond	-1094
▁schools	-1095
ially	-1096
▁king	-1097
▁few	-1098
▁daugh	-1099
▁available	-1100
▁various	-1101
▁prot	-1102
atic	-1103
▁rad	-1104
erg	-1105
▁techn	-1106
▁repres	-1107
umm	-1108
▁sal	-1109
uck	-1110
iod	-1111
▁equ	-1112
▁repl	-1113
▁euro	-1114
soci	-1115
ony	-1116
▁fun	-1117
▁arch	-1118
▁lab	-1119
▁today	-1120
ax	-1121
▁career	-1122
omin	-1123
▁ra	-1124
aining	-1125
▁eas	-1126
▁business	-1127
▁indust	-1128
sh	-1129
ified	-1130
▁built	-1131
eng	-1132
▁against	-1133
▁associ	-1134
▁christ	-1135
▁manag	-1136
▁works	-1137
ards	-1138
▁track	-1139
▁ant	-1140
row	-1141
▁lake	-1142
▁released	-1143
▁canad	-1144
▁building	-1145
ham	-1146
▁history	-1147
▁ang	-1148
▁conn	-1149
▁turn	-1150
▁chang	-1151
▁fac	-1152
que	-1153
▁person	-1154
▁fur	-1155
ality	-1156
▁way	-1157
ights	-1158
ient	-1159
▁little	-1160
let	-1161
▁including	-1162
erc	-1163
ends	-1164
▁important	-1165
bert	-1166
self	-1167
▁la	-1168
che	-1169
▁cle	-1170
▁power	-1171
par	-1172
▁word	-1173
▁does	-1174
ike	-1175
▁written	-1176
▁went	-1177
▁europe	-1178
▁period	-1179
med	-1180
▁hand	-1181
▁single	-1182
iety	-1183
ected	-1184
▁sometimes	-1185
yn	-1186
ases	-1187
▁young	-1188
▁international	-1189
▁field	-1190
ways	-1191
▁describ	-1192
▁lim	-1193
ience	-1194
▁counc	-1195
▁hol	-1196
ences	-1197
▁ep	-1198
rod	-1199
▁adv	-1200
▁exper	-1201
▁hill	-1202
ner	-1203
mb	-1204
aim	-1205
ron	-1206
▁stat	-1207
▁lond	-1208
▁produced	-1209
▁disc	-1210
▁next	-1211
▁rese	-1212
▁held	-1213
▁seat	-1214
▁season	-1215
▁wee	-1216
▁rock	-1217
side	-1218
lu	-1219
▁profess	-1220
▁news	-1221
▁cat	-1222
▁opp	-1223
▁president	-1224
▁cover	-1225
▁species	-1226
ented	-1227
ville	-1228
▁prev	-1229
ll	-1230
▁process	-1231
▁er	-1232
less	-1233
▁worked	-1234
ots	-1235
▁special	-1236
▁london	-1237
▁character	-1238
▁sen	-1239
▁bor	-1240
▁auth	-1241
▁cult	-1242
▁constr	-1243
▁phil	-1244
▁here	-1245
ances	-1246
▁geor	-1247
▁hy	-1248
▁ill	-1249
▁effect	-1250
▁mother	-1251
▁non	-1252
▁though	-1253
▁project	-1254
ness	-1255
conom	-1256
▁football	-1257
▁det	-1258
▁expl	-1259
au	-1260
▁compet	-1261
ges	-1262
▁tri	-1263
aster	-1264
▁side	-1265
▁austral	-1266
▁kill	-1267
ning	-1268
▁term	-1269
▁wood	-1270
▁green	-1271
▁ship	-1272
▁tem	-1273
▁center	-1274
▁hal	-1275
ival	-1276
hy	-1277
▁fri	-1278
rench	-1279
▁third	-1280
estern	-1281
▁econom	-1282
ulation	-1283
▁invol	-1284
▁point	-1285
▁fact	-1286
▁includes	-1287
▁product	-1288
urb	-1289
yle	-1290
▁lat	-1291
▁cross	-1292
▁throughout	-1293
ored	-1294
▁tradition	-1295
ese	-1296
▁hon	-1297
▁incre	-1298
▁aff	-1299
▁council	-1300
▁came	-1301
▁top	-1302
ler	-1303
ctor	-1304
▁eventually	-1305
lic	-1306
▁continued	-1307
▁songs	-1308
▁men	-1309
▁must	-1310
▁ve	-1311
ief	-1312
ai	-1313
▁soon	-1314
ret	-1315
▁wife	-1316
ories	-1317
▁grad	-1318
▁british	-1319
▁look	-1320
▁street	-1321
▁cast	-1322
▁hold	-1323
▁games	-1324
▁appear	-1325
▁poss	-1326
epend	-1327
rote	-1328
▁move	-1329
▁super	-1330
▁control	-1331
▁students	-1332
▁become	-1333
▁tour	-1334
▁win	-1335
ones	-1336
▁mor	-1337
▁make	-1338
▁prom	-1339
▁pract	-1340
▁central	-1341
ches	-1342
▁ren	-1343
oss	-1344
ode	-1345
▁french	-1346
ring	-1347
▁site	-1348
▁further	-1349
▁attended	-1350
▁level	-1351
▁country	-1352
af	-1353
ency	-1354
▁month	-1355
▁mean	-1356
▁surv	-1357
▁need	-1358
▁const	-1359
ague	-1360
line	-1361
field	-1362
▁activ	-1363
▁moved	-1364
▁interest	-1365
▁those	-1366
apan	-1367
▁iss	-1368
▁dri	-1369
▁net	-1370
cle	-1371
▁mill	-1372
▁due	-1373
▁largest	-1374
▁report	-1375
▁once	-1376
▁independ	-1377
aff	-1378
▁mun	-1379
▁without	-1380
▁england	-1381
▁appro	-1382
▁influ	-1383
▁features	-1384
▁vol	-1385
▁because	-1386
▁township	-1387
▁order	-1388
▁prop	-1389
▁giv	-1390
▁host	-1391
▁region	-1392
▁init	-1393
▁read	-1394
be	-1395
▁resp	-1396
▁dev	-1397
▁subse	-1398
▁areas	-1399
wards	-1400
▁dav	-1401
▁modern	-1402
▁hall	-1403
▁published	-1404
▁generally	-1405
▁rich	-1406
hod	-1407
ample	-1408
▁previous	-1409
▁wrote	-1410
hern	-1411
lo	-1412
ertain	-1413
ably	-1414
orts	-1415
aces	-1416
▁cir	-1417
▁services	-1418
▁priv	-1419
▁japan	-1420
wood	-1421
▁mot	-1422
▁star	-1423
ps	-1424
ization	-1425
▁hen	-1426
▁gold	-1427
ston	-1428
▁mult	-1429
▁free	-1430
▁exist	-1431
ize	-1432
▁light	-1433
▁appeared	-1434
▁live	-1435
erous	-1436
▁led	-1437
▁language	-1438
▁should	-1439
▁let	-1440
▁mal	-1441
bs	-1442
bor	-1443
▁sn	-1444
▁vir	-1445
▁inform	-1446
▁beh	-1447
▁engine	-1448
used	-1449
ung	-1450
▁vict	-1451
▁originally	-1452
▁particular	-1453
▁calif	-1454
osp	-1455
▁beg	-1456
▁low	-1457
▁development	-1458
read	-1459
▁northern	-1460
▁hous	-1461
▁californ	-1462
▁nat	-1463
▁ten	-1464
ney	-1465
ither	-1466
▁strong	-1467
▁grand	-1468
▁summ	-1469
▁author	-1470
▁himself	-1471
most	-1472
work	-1473
▁take	-1474
▁hig	-1475
▁get	-1476
▁broad	-1477
▁cam	-1478
▁remains	-1479
itary	-1480
ument	-1481
app	-1482
▁dest	-1483
ele	-1484
reek	-1485
▁office	-1486
ald	-1487
raft	-1488
▁fire	-1489
ission	-1490
▁proble	-1491
▁political	-1492
▁capt	-1493
▁wat	-1494
▁princ	-1495
▁court	-1496
▁der	-1497
▁role	-1498
▁example	-1499
irl	-1500
ery	-1501
eum	-1502
▁know	-1503
gress	-1504
▁toget	-1505
▁together	-1506
▁sold	-1507
▁daughter	-1508
▁returned	-1509
▁california	-1510
▁estab	-1511
▁airport	-1512
▁farm	-1513
▁sil	-1514
aper	-1515
alth	-1516
▁tro	-1517
▁present	-1518
ced	-1519
▁real	-1520
ention	-1521
▁view	-1522
▁full	-1523
▁sound	-1524
▁museum	-1525
▁tal	-1526
▁mass	-1527
▁telev	-1528
yal	-1529
adem	-1530
ection	-1531
uated	-1532
▁test	-1533
ops	-1534
▁find	-1535
▁sel	-1536
▁den	-1537
ged	-1538
▁signific	-1539
▁san	-1540
▁using	-1541
thern	-1542
▁title	-1543
▁blue	-1544
▁unt	-1545
▁depart	-1546
▁story	-1547
▁vide	-1548
▁sour	-1549
▁western	-1550
▁means	-1551
▁grow	-1552
▁attack	-1553
▁fall	-1554
uce	-1555
▁civ	-1556
aken	-1557
ript	-1558
▁buried	-1559
▁production	-1560
umb	-1561
▁others	-1562
icip	-1563
▁developed	-1564
hem	-1565
▁base	-1566
▁southern	-1567
▁given	-1568
ape	-1569
▁wind	-1570
▁method	-1571
▁your	-1572
▁separ	-1573
▁hard	-1574
ellow	-1575
▁academ	-1576
▁wid	-1577
▁ident	-1578
ploy	-1579
dle	-1580
▁social	-1581
▁books	-1582
▁heav	-1583
ino	-1584
▁less	-1585
rew	-1586
▁struct	-1587
▁proper	-1588
▁gra	-1589
▁television	-1590
▁version	-1591
▁seen	-1592
▁jun	-1593
▁right	-1594
▁player	-1595
▁mer	-1596
▁final	-1597
▁eight	-1598
itive	-1599
▁fish	-1600
ris	-1601
▁dou	-1602
▁admin	-1603
▁novel	-1604
eral	-1605
▁cy	-1606
▁thus	-1607
▁coll	-1608
▁centre	-1609
▁successful	-1610
ead	-1611
ove	-1612
ury	-1613
istr	-1614
▁seven	-1615
▁cem	-1616
▁ital	-1617
▁mater	-1618
▁board	-1619
▁cemeter	-1620
▁research	-1621
uk	-1622
▁dam	-1623
ceed	-1624
▁nav	-1625
▁days	-1626
kn	-1627
ata	-1628
▁offer	-1629
▁pur	-1630
▁instr	-1631
▁education	-1632
▁nor	-1633
▁pal	-1634
west	-1635
ibr	-1636
▁girl	-1637
▁described	-1638
▁anim	-1639
▁fort	-1640
ctions	-1641
▁ber	-1642
den	-1643
▁comb	-1644
▁review	-1645
▁ground	-1646
ze	-1647
▁sat	-1648
iving	-1649
▁walk	-1650
mit	-1651
ying	-1652
▁lost	-1653
▁significant	-1654
arily	-1655
▁league	-1656
▁entire	-1657
com	-1658
▁created	-1659
▁champ	-1660
itor	-1661
▁week	-1662
▁provided	-1663
▁recorded	-1664
▁groups	-1665
▁municip	-1666
ators	-1667
▁trav	-1668
▁military	-1669
▁capital	-1670
▁jack	-1671
▁claim	-1672
▁fail	-1673
▁until	-1674
▁sent	-1675
▁numerous	-1676
▁cemetery	-1677
▁god	-1678
▁que	-1679
▁started	-1680
▁too	-1681
▁lives	-1682
empt	-1683
aged	-1684
▁market	-1685
▁civil	-1686
ids	-1687
▁body	-1688
▁case	-1689
▁russ	-1690
▁norm	-1691
arth	-1692
ering	-1693
▁mc	-1694
▁remained	-1695
ells	-1696
▁allow	-1697
▁always	-1698
▁featured	-1699
▁woman	-1700
▁instit	-1701
▁playing	-1702
inted	-1703
▁brown	-1704
▁forest	-1705
▁ball	-1706
▁access	-1707
▁di	-1708
▁cop	-1709
▁ide	-1710
▁caus	-1711
▁program	-1712
▁deb	-1713
▁contains	-1714
bour	-1715
▁william	-1716
uf	-1717
lin	-1718
▁mix	-1719
▁mich	-1720
▁accord	-1721
▁plat	-1722
ef	-1723
▁night	-1724
▁wall	-1725
▁official	-1726
▁studied	-1727
▁upon	-1728
go	-1729
aves	-1730
▁big	-1731
ogn	-1732
rick	-1733
▁human	-1734
play	-1735
▁roman	-1736
▁produc	-1737
lex	-1738
▁railway	-1739
hic	-1740
▁vo	-1741
▁designed	-1742
▁pet	-1743
▁epis	-1744
▁belie	-1745
▁want	-1746
cast	-1747
▁events	-1748
rem	-1749
▁sett	-1750
▁primary	-1751
ama	-1752
ached	-1753
▁followed	-1754
▁hom	-1755
▁mur	-1756
▁performed	-1757
▁obs	-1758
ivid	-1759
▁exec	-1760
▁resid	-1761
▁style	-1762
▁earl	-1763
ius	-1764
▁sug	-1765
▁half	-1766
▁thom	-1767
▁afric	-1768
▁army	-1769
▁nearby	-1770
raw	-1771
ensive	-1772
▁surround	-1773
of	-1774
ara	-1775
▁press	-1776
▁royal	-1777
▁middle	-1778
anch	-1779
▁phys	-1780
istic	-1781
▁phot	-1782
▁vari	-1783
rest	-1784
▁working	-1785
▁information	-1786
quar	-1787
▁command	-1788
hib	-1789
ping	-1790
▁contribut	-1791
▁sun	-1792
▁material	-1793
▁systems	-1794
itar	-1795
olic	-1796
▁occas	-1797
▁radio	-1798
ched	-1799
▁hot	-1800
▁bay	-1801
fic	-1802
▁age	-1803
hood	-1804
▁squ	-1805
ological	-1806
▁canada	-1807
▁doctor	-1808
craft	-1809
▁plan	-1810
▁position	-1811
▁teams	-1812
▁regular	-1813
▁individ	-1814
▁hor	-1815
▁video	-1816
▁famous	-1817
▁lou	-1818
▁alth	-1819
▁neigh	-1820
ination	-1821
orpor	-1822
oms	-1823
▁sus	-1824
▁jour	-1825
▁lies	-1826
▁circ	-1827
▁come	-1828
▁commit	-1829
▁dont	-1830
▁grew	-1831
ned	-1832
ote	-1833
▁almost	-1834
▁independent	-1835
▁mic	-1836
oor	-1837
▁vi	-1838
▁fund	-1839
▁mostly	-1840
▁liter	-1841
▁mary	-1842
▁private	-1843
▁although	-1844
uit	-1845
▁battle	-1846
▁space	-1847
▁replaced	-1848
▁active	-1849
▁introd	-1850
ana	-1851
▁jud	-1852
▁mel	-1853
aps	-1854
▁outside	-1855
▁represent	-1856
▁desp	-1857
▁food	-1858
▁invest	-1859
ades	-1860
▁subsequently	-1861
▁love	-1862
▁bill	-1863
▁jer	-1864
▁jew	-1865
▁foc	-1866
cially	-1867
▁director	-1868
▁dog	-1869
▁owned	-1870
▁round	-1871
▁shows	-1872
amed	-1873
oney	-1874
medi	-1875
heast	-1876
▁referred	-1877
▁george	-1878
ique	-1879
▁cou	-1880
enced	-1881
▁james	-1882
cover	-1883
▁front	-1884
ilities	-1885
▁coast	-1886
▁mas	-1887
▁step	-1888
▁transl	-1889
▁according	-1890
▁administr	-1891
na	-1892
▁magaz	-1893
to	-1894
▁bal	-1895
▁decl	-1896
▁fem	-1897
▁records	-1898
over	-1899
▁noted	-1900
▁mountain	-1901
▁plant	-1902
gin	-1903
▁films	-1904
▁forms	-1905
known	-1906
▁libr	-1907
▁below	-1908
▁don	-1909
▁cost	-1910
uter	-1911
▁past	-1912
▁quick	-1913
▁accom	-1914
▁impro	-1915
▁enc	-1916
ercial	-1917
▁across	-1918
▁color	-1919
▁instead	-1920
▁rob	-1921
rents	-1922
▁joined	-1923
▁relations	-1924
▁arg	-1925
acy	-1926
▁ly	-1927
▁type	-1928
▁range	-1929
burg	-1930
▁pot	-1931
▁bir	-1932
▁subject	-1933
▁industry	-1934
ule	-1935
▁bi	-1936
▁away	-1937
▁pred	-1938
▁population	-1939
ements	-1940
ground	-1941
ems	-1942
lished	-1943
▁valley	-1944
▁aud	-1945
▁eastern	-1946
ores	-1947
ocr	-1948
cher	-1949
ending	-1950
▁months	-1951
eth	-1952
▁indian	-1953
ucted	-1954
▁union	-1955
▁paul	-1956
▁princip	-1957
▁above	-1958
▁ham	-1959
▁chief	-1960
ma	-1961
▁mov	-1962
▁hun	-1963
▁cred	-1964
▁commercial	-1965
wer	-1966
ental	-1967
▁attempt	-1968
▁release	-1969
▁bank	-1970
▁close	-1971
▁boy	-1972
▁winn	-1973
▁society	-1974
▁specific	-1975
▁police	-1976
▁involved	-1977
▁fed	-1978
▁employ	-1979
ware	-1980
▁archit	-1981
▁corn	-1982
▁stri	-1983
▁lear	-1984
ett	-1985
▁deg	-1986
▁architect	-1987
▁hit	-1988
▁occur	-1989
▁put	-1990
▁sand	-1991
▁taken	-1992
▁typically	-1993
▁fest	-1994
▁cro	-1995
▁ey	-1996
ateg	-1997
▁sam	-1998
▁tex	-1999
▁bridge	-2000
▁help	-2001
▁mainly	-2002
▁tor	-2003
aries	-2004
▁agric	-2005
▁except	-2006
▁recogn	-2007
aut	-2008
▁parish	-2009
▁women	-2010
▁tur	-2011
nal	-2012
▁mr	-2013
▁object	-2014
▁wil	-2015
▁plays	-2016
▁relig	-2017
▁either	-2018
▁gard	-2019
▁mart	-2020
▁natural	-2021
▁established	-2022
road	-2023
▁despite	-2024
▁agricult	-2025
uel	-2026
▁gar	-2027
▁meet	-2028
▁model	-2029
▁formed	-2030
▁esc	-2031
▁key	-2032
▁treat	-2033
olution	-2034
▁names	-2035
▁execut	-2036
▁opt	-2037
▁cath	-2038
▁attract	-2039
▁headquar	-2040
ints	-2041
ught	-2042
▁pit	-2043
▁serves	-2044
▁exam	-2045
▁wear	-2046
▁sports	-2047
off	-2048
aker	-2049
▁anal	-2050
▁david	-2051
▁raised	-2052
▁saw	-2053
▁hosp	-2054
▁appo	-2055
▁changed	-2056
▁say	-2057
▁sea	-2058
ples	-2059
iction	-2060
ope	-2061
▁australia	-2062
oted	-2063
▁think	-2064
sey	-2065
▁pain	-2066
▁lived	-2067
▁players	-2068
▁rul	-2069
wh	-2070
hel	-2071
▁eg	-2072
▁fav	-2073
▁los	-2074
▁clos	-2075
▁liber	-2076
▁multip	-2077
▁feature	-2078
▁construction	-2079
▁parts	-2080
ago	-2081
▁bird	-2082
ked	-2083
ential	-2084
igr	-2085
▁mac	-2086
iff	-2087
ours	-2088
▁cho	-2089
▁becom	-2090
▁gave	-2091
▁surf	-2092
▁maint	-2093
▁republ	-2094
anish	-2095
tered	-2096
anded	-2097
ias	-2098
▁ach	-2099
▁fif	-2100
lands	-2101
utes	-2102
▁oh	-2103
acher	-2104
▁stage	-2105
▁therefore	-2106
▁bow	-2107
▁nar	-2108
▁express	-2109
▁itself	-2110
▁bri	-2111
▁traditional	-2112
▁particip	-2113
▁ox	-2114
▁fig	-2115
▁dark	-2116
▁sons	-2117
val	-2118
▁added	-2119
ole	-2120
▁done	-2121
▁killed	-2122
▁complex	-2123
ming	-2124
▁soft	-2125
▁elected	-2126
▁stop	-2127
atory	-2128
▁chair	-2129
▁accept	-2130
▁programm	-2131
▁training	-2132
▁france	-2133
▁buildings	-2134
ael	-2135
▁got	-2136
▁consists	-2137
▁connect	-2138
men	-2139
xic	-2140
▁consist	-2141
ee	-2142
▁log	-2143
reg	-2144
inct	-2145
▁change	-2146
here	-2147
▁compos	-2148
▁ben	-2149
▁uses	-2150
▁immedi	-2151
ites	-2152
▁nick	-2153
ufact	-2154
▁consider	-2155
key	-2156
▁commonly	-2157
▁operated	-2158
▁countries	-2159
▁exc	-2160
▁inj	-2161
▁race	-2162
▁republic	-2163
▁cut	-2164
ffer	-2165
▁gun	-2166
▁manufact	-2167
▁ple	-2168
icated	-2169
▁force	-2170
▁health	-2171
▁defe	-2172
ym	-2173
roy	-2174
pecially	-2175
▁angel	-2176
ability	-2177
▁certain	-2178
▁platform	-2179
▁primarily	-2180
▁transport	-2181
berg	-2182
▁pen	-2183
oph	-2184
elling	-2185
▁native	-2186
▁constit	-2187
▁aircraft	-2188
▁discover	-2189
ey	-2190
ising	-2191
mon	-2192
xim	-2193
▁assist	-2194
▁conserv	-2195
▁division	-2196
▁minister	-2197
▁especially	-2198
▁tax	-2199
▁houses	-2200
▁settle	-2201
▁fair	-2202
▁diffic	-2203
asons	-2204
iding	-2205
▁difficult	-2206
▁remain	-2207
▁location	-2208
▁christian	-2209
▁deter	-2210
▁guitar	-2211
▁applic	-2212
▁parents	-2213
dom	-2214
▁science	-2215
ae	-2216
aph	-2217
▁mach	-2218
▁frank	-2219
▁listed	-2220
aign	-2221
▁friends	-2222
▁standard	-2223
aur	-2224
reen	-2225
▁sister	-2226
▁x	-2227
▁rare	-2228
▁runs	-2229
▁theat	-2230
▁rather	-2231
▁secret	-2232
▁related	-2233
head	-2234
▁takes	-2235
▁america	-2236
ky	-2237
▁distribut	-2238
▁doc	-2239
▁library	-2240
▁widely	-2241
▁european	-2242
▁clear	-2243
▁provides	-2244
oke	-2245
▁limited	-2246
▁fight	-2247
▁lower	-2248
▁newsp	-2249
ails	-2250
iers	-2251
▁border	-2252
▁professional	-2253
▁educated	-2254
▁appears	-2255
ification	-2256
▁arri	-2257
▁clim	-2258
▁campaign	-2259
gen	-2260
▁regard	-2261
▁sho	-2262
▁democr	-2263
▁languages	-2264
ires	-2265
▁thought	-2266
▁department	-2267
imin	-2268
▁tar	-2269
▁possible	-2270
▁dut	-2271
▁honor	-2272
orporated	-2273
▁movement	-2274
▁stations	-2275
▁flow	-2276
▁visit	-2277
▁robert	-2278
▁previously	-2279
ipp	-2280
▁bra	-2281
▁performance	-2282
▁parl	-2283
▁media	-2284
▁suc	-2285
de	-2286
▁fle	-2287
quent	-2288
▁having	-2289
▁association	-2290
icy	-2291
nes	-2292
▁artic	-2293
ises	-2294
tic	-2295
isc	-2296
tar	-2297
▁critic	-2298
▁quickly	-2299
ray	-2300
riage	-2301
▁self	-2302
▁characters	-2303
▁tracks	-2304
▁associated	-2305
itan	-2306
orth	-2307
▁voc	-2308
▁pers	-2309
▁magazine	-2310
anks	-2311
▁dom	-2312
▁our	-2313
▁concept	-2314
ex	-2315
idence	-2316
▁hospital	-2317
▁bad	-2318
▁penn	-2319
oon	-2320
the	-2321
like	-2322
outh	-2323
▁fer	-2324
▁summer	-2325
▁poet	-2326
▁altern	-2327
ask	-2328
▁colon	-2329
▁network	-2330
▁writing	-2331
▁practice	-2332
elled	-2333
aught	-2334
▁data	-2335
▁achie	-2336
▁reported	-2337
▁action	-2338
▁behind	-2339
▁brought	-2340
▁germany	-2341
ush	-2342
▁course	-2343
hab	-2344
chan	-2345
▁succeed	-2346
▁lif	-2347
▁collect	-2348
▁japanese	-2349
▁quest	-2350
▁lay	-2351
▁continues	-2352
ios	-2353
▁thomas	-2354
▁sir	-2355
▁commission	-2356
▁particularly	-2357
▁companies	-2358
▁theory	-2359
▁champions	-2360
time	-2361
▁notable	-2362
▁musical	-2363
ta	-2364
▁chap	-2365
▁cust	-2366
▁env	-2367
eds	-2368
▁alex	-2369
▁campus	-2370
▁catholic	-2371
▁cand	-2372
cient	-2373
▁earth	-2374
▁variety	-2375
▁dro	-2376
▁tom	-2377
▁paint	-2378
▁bands	-2379
itz	-2380
▁ros	-2381
▁train	-2382
erved	-2383
▁mont	-2384
▁beach	-2385
▁smith	-2386
▁activities	-2387
▁prob	-2388
▁friend	-2389
▁virgin	-2390
ica	-2391
▁bud	-2392
▁oppos	-2393
ili	-2394
▁mad	-2395
▁rap	-2396
▁scott	-2397
rang	-2398
▁parliam	-2399
iron	-2400
▁imm	-2401
▁spent	-2402
▁victor	-2403
▁makes	-2404
▁programs	-2405
stand	-2406
▁source	-2407
▁neg	-2408
▁disp	-2409
▁break	-2410
▁coach	-2411
▁types	-2412
▁suffer	-2413
ership	-2414
▁minor	-2415
atively	-2416
▁initially	-2417
▁reb	-2418
▁react	-2419
omb	-2420
ania	-2421
cer	-2422
▁box	-2423
▁suggest	-2424
uff	-2425
▁dig	-2426
▁academy	-2427
asing	-2428
▁meas	-2429
▁money	-2430
▁agre	-2431
▁comes	-2432
▁fut	-2433
▁syn	-2434
igned	-2435
▁castle	-2436
▁yellow	-2437
▁frequently	-2438
ida	-2439
▁fa	-2440
aches	-2441
▁living	-2442
▁longer	-2443
▁changes	-2444
orial	-2445
olf	-2446
ament	-2447
▁cause	-2448
▁heart	-2449
▁mayor	-2450
▁charles	-2451
▁products	-2452
▁promin	-2453
▁studies	-2454
▁contract	-2455
▁rac	-2456
▁nine	-2457
mp	-2458
ox	-2459
▁adj	-2460
▁spring	-2461
sy	-2462
▁divided	-2463
▁occup	-2464
well	-2465
▁burn	-2466
▁better	-2467
▁ancient	-2468
▁ut	-2469
▁wild	-2470
▁situated	-2471
▁cases	-2472
▁travel	-2473
▁higher	-2474
▁territ	-2475
▁chic	-2476
▁franc	-2477
▁parliament	-2478
▁pie	-2479
▁ven	-2480
airs	-2481
▁deal	-2482
▁corpor	-2483
▁destroy	-2484
▁structure	-2485
ense	-2486
▁journal	-2487
▁shortly	-2488
inese	-2489
▁route	-2490
ils	-2491
▁flor	-2492
ography	-2493
▁albums	-2494
▁eth	-2495
▁cann	-2496
▁study	-2497
▁going	-2498
▁bul	-2499
▁pan	-2500
▁element	-2501
ionally	-2502
▁islands	-2503
▁respons	-2504
uation	-2505
▁schol	-2506
▁prison	-2507
▁purp	-2508
ingu	-2509
▁bound	-2510
▁reviews	-2511
rel	-2512
▁exhib	-2513
odes	-2514
lers	-2515
▁sem	-2516
▁room	-2517
▁extrem	-2518
lect	-2519
▁abs	-2520
▁inn	-2521
▁meaning	-2522
▁provide	-2523
▁recent	-2524
▁historical	-2525
ude	-2526
▁card	-2527
▁brothers	-2528
▁problems	-2529
hire	-2530
ula	-2531
ember	-2532
▁creek	-2533
▁washing	-2534
▁required	-2535
▁suburb	-2536
▁richard	-2537
▁highly	-2538
▁making	-2539
isl	-2540
▁keep	-2541
ump	-2542
▁cab	-2543
▁province	-2544
▁cit	-2545
▁india	-2546
▁terms	-2547
▁relationship	-2548
tal	-2549
▁text	-2550
▁scient	-2551
▁committe	-2552
pr	-2553
▁spanish	-2554
ened	-2555
▁pun	-2556
▁tun	-2557
▁texas	-2558
▁festival	-2559
▁separate	-2560
▁additional	-2561
▁lad	-2562
▁chinese	-2563
▁student	-2564
iles	-2565
▁ze	-2566
▁shop	-2567
▁termin	-2568
▁directed	-2569
back	-2570
oso	-2571
▁os	-2572
ropol	-2573
▁smaller	-2574
▁saf	-2575
▁account	-2576
▁headquarters	-2577
▁elev	-2578
▁older	-2579
▁survived	-2580
thing	-2581
▁voice	-2582
▁decided	-2583
amb	-2584
▁lines	-2585
▁forces	-2586
elves	-2587
▁closed	-2588
rup	-2589
teen	-2590
uments	-2591
apt	-2592
▁cele	-2593
ergy	-2594
▁regional	-2595
olk	-2596
▁du	-2597
▁lord	-2598
▁environ	-2599
▁fourth	-2600
▁covered	-2601
▁ol	-2602
▁pict	-2603
▁match	-2604
rial	-2605
▁quar	-2606
▁domin	-2607
▁stone	-2608
▁immediately	-2609
▁offers	-2610
▁section	-2611
ols	-2612
▁quite	-2613
▁municipality	-2614
▁thre	-2615
▁wide	-2616
▁financ	-2617
phy	-2618
▁viol	-2619
▁louis	-2620
iqu	-2621
▁wa	-2622
▁late	-2623
▁poor	-2624
▁allowed	-2625
▁scot	-2626
rovers	-2627
ulated	-2628
▁dan	-2629
▁residents	-2630
irt	-2631
king	-2632
▁problem	-2633
town	-2634
▁display	-2635
ream	-2636
▁turned	-2637
▁governor	-2638
▁broadcast	-2639
▁sex	-2640
▁subs	-2641
▁speak	-2642
▁canadian	-2643
▁adop	-2644
▁staff	-2645
▁teacher	-2646
▁operates	-2647
▁cant	-2648
▁controvers	-2649
pan	-2650
▁mechan	-2651
▁recently	-2652
▁plann	-2653
att	-2654
▁op	-2655
▁pow	-2656
ength	-2657
▁carol	-2658
▁paper	-2659
▁complet	-2660
▁composed	-2661
▁via	-2662
▁birth	-2663
▁personal	-2664
▁supported	-2665
▁ult	-2666
▁railroad	-2667
▁ess	-2668
▁ended	-2669
▁historic	-2670
erve	-2671
▁sout	-2672
undred	-2673
▁movie	-2674
▁leader	-2675
▁majority	-2676
▁introduced	-2677
umn	-2678
▁larg	-2679
▁nomin	-2680
▁peter	-2681
▁issues	-2682
▁lin	-2683
▁michael	-2684
▁multiple	-2685
▁marriage	-2686
cy	-2687
▁yet	-2688
aving	-2689
▁paris	-2690
▁trade	-2691
▁pay	-2692
▁greek	-2693
▁mexic	-2694
ha	-2695
▁amb	-2696
atives	-2697
▁why	-2698
▁give	-2699
▁mixed	-2700
▁running	-2701
▁upper	-2702
▁appointed	-2703
▁deep	-2704
bridge	-2705
▁fly	-2706
▁acqu	-2707
▁critics	-2708
tt	-2709
▁cas	-2710
▁winter	-2711
▁henry	-2712
▁daughters	-2713
▁conse	-2714
▁hundred	-2715
▁shot	-2716
gs	-2717
clus	-2718
mark	-2719
▁vehic	-2720
▁editor	-2721
▁jose	-2722
▁larger	-2723
bury	-2724
▁awards	-2725
▁jewish	-2726
▁italian	-2727
▁ju	-2728
▁focus	-2729
▁cities	-2730
▁nothing	-2731
▁ord	-2732
▁autom	-2733
▁artist	-2734
▁words	-2735
▁operations	-2736
▁kind	-2737
▁latin	-2738
▁future	-2739
▁largely	-2740
▁individual	-2741
board	-2742
abor	-2743
uate	-2744
▁economy	-2745
▁episode	-2746
▁younger	-2747
▁results	-2748
fort	-2749
inet	-2750
▁hus	-2751
ension	-2752
▁date	-2753
▁equip	-2754
▁table	-2755
▁founded	-2756
▁washington	-2757
isher	-2758
▁face	-2759
ux	-2760
hol	-2761
ander	-2762
▁subst	-2763
band	-2764
▁pil	-2765
▁symb	-2766
▁complete	-2767
▁distinct	-2768
▁succeeded	-2769
agon	-2770
▁culture	-2771
▁represented	-2772
izes	-2773
▁temper	-2774
mar	-2775
▁tenn	-2776
▁fell	-2777
▁thems	-2778
▁technology	-2779
▁themselves	-2780
ests	-2781
▁dun	-2782
▁ire	-2783
▁prem	-2784
▁nature	-2785
▁coun	-2786
ograph	-2787
▁ded	-2788
ables	-2789
iting	-2790
▁twent	-2791
▁ran	-2792
▁chem	-2793
▁stars	-2794
▁degree	-2795
▁stories	-2796
ropolitan	-2797
for	-2798
cript	-2799
▁unknown	-2800
hest	-2801
▁manager	-2802
▁computer	-2803
oid	-2804
▁lie	-2805
▁dead	-2806
▁collection	-2807
▁haw	-2808
▁ful	-2809
▁facilities	-2810
semb	-2811
vert	-2812
▁ath	-2813
▁numbers	-2814
▁respect	-2815
▁election	-2816
▁arts	-2817
▁points	-2818
▁kingdom	-2819
▁operation	-2820
▁china	-2821
▁female	-2822
▁ontar	-2823
▁insp	-2824
▁offered	-2825
▁progress	-2826
▁influence	-2827
orks	-2828
▁draw	-2829
▁spir	-2830
▁brand	-2831
ties	-2832
▁conv	-2833
▁trib	-2834
inning	-2835
▁stock	-2836
▁australian	-2837
ror	-2838
▁uns	-2839
▁appl	-2840
▁chann	-2841
ibility	-2842
▁cry	-2843
▁rain	-2844
▁reason	-2845
▁mission	-2846
▁championship	-2847
▁mention	-2848
▁shar	-2849
▁oil	-2850
▁economic	-2851
zz	-2852
ales	-2853
▁neighbor	-2854
▁failed	-2855
▁trains	-2856
ips	-2857
oses	-2858
▁shown	-2859
▁require	-2860
▁gall	-2861
▁enj	-2862
▁mir	-2863
ressed	-2864
▁prior	-2865
▁couple	-2866
egr	-2867
pped	-2868
▁prec	-2869
▁label	-2870
▁writer	-2871
▁ontario	-2872
▁grant	-2873
▁lands	-2874
▁bene	-2875
▁rank	-2876
▁heavy	-2877
▁legisl	-2878
edy	-2879
aped	-2880
▁holds	-2881
▁caused	-2882
▁fishing	-2883
ano	-2884
ken	-2885
ously	-2886
▁placed	-2887
▁studio	-2888
▁medical	-2889
▁versions	-2890
▁something	-2891
▁aug	-2892
▁blood	-2893
▁function	-2894
▁virginia	-2895
cent	-2896
▁spl	-2897
▁van	-2898
ching	-2899
▁stad	-2900
eration	-2901
▁ho	-2902
▁emb	-2903
rison	-2904
▁ships	-2905
▁religious	-2906
onic	-2907
▁atl	-2908
▁sym	-2909
▁artists	-2910
▁adm	-2911
▁contain	-2912
▁property	-2913
▁webs	-2914
▁celebr	-2915
mitted	-2916
▁inside	-2917
▁organization	-2918
anced	-2919
▁opened	-2920
wise	-2921
view	-2922
▁psy	-2923
▁size	-2924
aching	-2925
▁environment	-2926
ota	-2927
▁rights	-2928
▁concern	-2929
▁theatre	-2930
oned	-2931
ender	-2932
ounced	-2933
▁carried	-2934
han	-2935
▁dance	-2936
▁leaves	-2937
▁committee	-2938
▁executive	-2939
antic	-2940
▁pack	-2941
▁true	-2942
▁arrang	-2943
▁federal	-2944
▁positive	-2945
▁software	-2946
ugg	-2947
▁cer	-2948
▁prominent	-2949
▁communities	-2950
▁hyd	-2951
isions	-2952
▁least	-2953
▁columb	-2954
▁ireland	-2955
▁cup	-2956
▁emp	-2957
▁nickn	-2958
▁helped	-2959
▁towards	-2960
▁appearance	-2961
▁fel	-2962
apers	-2963
▁bab	-2964
▁might	-2965
▁restaur	-2966
▁floor	-2967
lor	-2968
ining	-2969
lement	-2970
uted	-2971
iment	-2972
▁lack	-2973
ding	-2974
▁brief	-2975
aled	-2976
ustr	-2977
▁bon	-2978
▁feel	-2979
▁latter	-2980
▁competition	-2981
ume	-2982
▁snow	-2983
porary	-2984
▁energy	-2985
ference	-2986
▁junior	-2987
▁chicago	-2988
▁finally	-2989
▁surface	-2990
ims	-2991
etic	-2992
▁inhab	-2993
▁serve	-2994
▁foreign	-2995
▁philoso	-2996
ients	-2997
urity	-2998
▁adult	-2999
▁evidence	-3000
▁politics	-3001
▁crew	-3002
▁examples	-3003
mer	-3004
▁swed	-3005
▁convent	-3006
▁investig	-3007
▁management	-3008
▁wr	-3009
arian	-3010
▁sequ	-3011
ightly	-3012
▁hills	-3013
don	-3014
▁cell	-3015
iation	-3016
▁thats	-3017
▁africa	-3018
▁places	-3019
▁memorial	-3020
ket	-3021
▁flag	-3022
▁angeles	-3023
▁completed	-3024
▁settlement	-3025
iams	-3026
more	-3027
▁discuss	-3028
house	-3029
▁master	-3030
uth	-3031
year	-3032
▁simple	-3033
▁communic	-3034
▁things	-3035
▁newspaper	-3036
▁dar	-3037
▁simp	-3038
▁stay	-3039
▁finished	-3040
▁industrial	-3041
ona	-3042
orter	-3043
▁stadium	-3044
iced	-3045
▁ice	-3046
▁bell	-3047
▁cart	-3048
▁falls	-3049
▁legal	-3050
▁trust	-3051
ds	-3052
▁thir	-3053
▁produce	-3054
▁russian	-3055
▁online	-3056
▁earlier	-3057
▁bed	-3058
▁continue	-3059
▁pra	-3060
▁actor	-3061
▁metal	-3062
▁store	-3063
▁awarded	-3064
▁resident	-3065
oved	-3066
▁contr	-3067
▁stra	-3068
▁trail	-3069
ram	-3070
▁kar	-3071
▁lic	-3072
alled	-3073
▁laun	-3074
▁williams	-3075
▁assemb	-3076
▁leading	-3077
▁probably	-3078
▁recording	-3079
▁screen	-3080
▁slow	-3081
▁vary	-3082
▁weeks	-3083
▁silver	-3084
ills	-3085
antly	-3086
ought	-3087
▁able	-3088
anta	-3089
▁categ	-3090
▁lyric	-3091
▁branch	-3092
▁signed	-3093
▁becomes	-3094
▁congress	-3095
▁professor	-3096
▁gal	-3097
▁gas	-3098
▁sav	-3099
▁bass	-3100
kins	-3101
onstr	-3102
▁motor	-3103
▁twice	-3104
▁candid	-3105
▁contem	-3106
▁believed	-3107
ria	-3108
etts	-3109
▁goal	-3110
▁speed	-3111
▁increased	-3112
▁relatively	-3113
▁statist	-3114
ny	-3115
▁pac	-3116
▁path	-3117
▁qual	-3118
▁flows	-3119
▁issue	-3120
▁directly	-3121
use	-3122
based	-3123
▁loss	-3124
▁note	-3125
▁sar	-3126
▁chall	-3127
▁tower	-3128
▁annual	-3129
▁experience	-3130
▁ca	-3131
rence	-3132
isters	-3133
▁kings	-3134
▁crater	-3135
▁lik	-3136
▁unit	-3137
▁brook	-3138
▁florida	-3139
tr	-3140
uge	-3141
illed	-3142
▁retired	-3143
▁elements	-3144
ify	-3145
▁link	-3146
▁custom	-3147
▁hab	-3148
▁bish	-3149
▁kept	-3150
▁emerg	-3151
▁labor	-3152
▁captain	-3153
▁managed	-3154
▁electric	-3155
▁iron	-3156
▁mathem	-3157
▁wearing	-3158
▁sle	-3159
▁spr	-3160
▁youth	-3161
▁passed	-3162
▁oly	-3163
▁oldest	-3164
▁psych	-3165
▁length	-3166
▁organiz	-3167
▁pric	-3168
enue	-3169
▁trees	-3170
ari	-3171
bon	-3172
▁tourn	-3173
▁joseph	-3174
mans	-3175
▁jersey	-3176
▁highest	-3177
▁olymp	-3178
▁units	-3179
▁institute	-3180
oo	-3181
onom	-3182
▁northwest	-3183
ylv	-3184
▁arrest	-3185
isk	-3186
▁asked	-3187
wide	-3188
▁plants	-3189
▁highway	-3190
▁seem	-3191
▁models	-3192
inal	-3193
▁georg	-3194
▁necess	-3195
▁reform	-3196
▁borough	-3197
▁mountains	-3198
▁occasionally	-3199
enth	-3200
▁scen	-3201
umed	-3202
▁ash	-3203
▁dry	-3204
▁hap	-3205
▁levels	-3206
▁metropolitan	-3207
bro	-3208
▁hes	-3209
▁fast	-3210
▁ultim	-3211
▁standing	-3212
▁cannot	-3213
azz	-3214
▁tree	-3215
▁camer	-3216
▁whole	-3217
ares	-3218
▁dyn	-3219
▁leave	-3220
▁critical	-3221
▁suffered	-3222
▁surrounding	-3223
astic	-3224
▁famil	-3225
▁august	-3226
▁rivers	-3227
▁beaut	-3228
▁garden	-3229
▁promot	-3230
▁afterwards	-3231
▁revolution	-3232
▁electron	-3233
▁completely	-3234
istry	-3235
▁pick	-3236
▁marked	-3237
▁municipal	-3238
resp	-3239
▁hat	-3240
▁mcc	-3241
▁web	-3242
ready	-3243
▁penns	-3244
▁transfer	-3245
oma	-3246
itch	-3247
▁mos	-3248
▁rose	-3249
▁prime	-3250
▁liberal	-3251
▁principal	-3252
▁increasing	-3253
ocks	-3254
▁belong	-3255
eg	-3256
water	-3257
▁effects	-3258
▁francis	-3259
▁financial	-3260
▁cook	-3261
▁irish	-3262
▁sport	-3263
▁conver	-3264
▁baseball	-3265
uries	-3266
▁really	-3267
▁wanted	-3268
igan	-3269
▁swe	-3270
claim	-3271
ington	-3272
▁estate	-3273
▁treatment	-3274
▁agriculture	-3275
ker	-3276
ylvania	-3277
▁basket	-3278
▁integr	-3279
▁defeated	-3280
▁hur	-3281
achus	-3282
▁medic	-3283
▁senior	-3284
▁clubs	-3285
▁peace	-3286
▁fellow	-3287
▁conditions	-3288
▁nearly	-3289
▁already	-3290
▁sources	-3291
▁cars	-3292
▁glass	-3293
▁website	-3294
▁literature	-3295
▁ur	-3296
aded	-3297
▁cham	-3298
▁happ	-3299
▁nation	-3300
▁taught	-3301
ste	-3302
ider	-3303
▁die	-3304
▁jim	-3305
▁idea	-3306
▁occurs	-3307
▁glob	-3308
▁removed	-3309
bed	-3310
mond	-3311
▁cow	-3312
omm	-3313
uals	-3314
▁african	-3315
▁alle	-3316
▁mess	-3317
▁defin	-3318
▁indic	-3319
ees	-3320
▁oak	-3321
▁code	-3322
▁dise	-3323
▁ohio	-3324
utions	-3325
▁traff	-3326
▁attend	-3327
icks	-3328
ishing	-3329
▁continu	-3330
▁methods	-3331
▁foundation	-3332
▁plans	-3333
▁martin	-3334
▁animals	-3335
▁approach	-3336
▁instrument	-3337
ka	-3338
ki	-3339
▁carry	-3340
▁stands	-3341
▁walking	-3342
▁od	-3343
iest	-3344
ione	-3345
▁ans	-3346
▁crow	-3347
▁rang	-3348
▁husband	-3349
▁secondary	-3350
vey	-3351
▁flat	-3352
▁purch	-3353
▁expect	-3354
▁activity	-3355
▁distingu	-3356
▁id	-3357
▁rule	-3358
iences	-3359
▁apart	-3360
▁twenty	-3361
▁repe	-3362
▁sens	-3363
▁italy	-3364
▁micro	-3365
▁ec	-3366
arts	-3367
ette	-3368
ship	-3369
▁lot	-3370
shire	-3371
▁proved	-3372
▁greater	-3373
▁constructed	-3374
my	-3375
resh	-3376
▁bit	-3377
▁ring	-3378
▁uncle	-3379
▁elementary	-3380
▁navy	-3381
▁hands	-3382
▁decision	-3383
▁connected	-3384
rian	-3385
ysis	-3386
▁mind	-3387
▁ways	-3388
▁girls	-3389
eding	-3390
urban	-3391
▁ward	-3392
▁acting	-3393
▁policy	-3394
▁projects	-3395
ounder	-3396
▁block	-3397
aland	-3398
▁male	-3399
▁athlet	-3400
▁double	-3401
▁massachus	-3402
▁pennsylvania	-3403
▁boys	-3404
▁unique	-3405
▁southeast	-3406
▁peak	-3407
ression	-3408
▁derived	-3409
▁illustr	-3410
▁massachusetts	-3411
ero	-3412
ums	-3413
▁birds	-3414
▁producer	-3415
▁sund	-3416
▁crick	-3417
▁fields	-3418
▁murder	-3419
▁northeast	-3420
ns	-3421
ado	-3422
fect	-3423
▁square	-3424
▁physical	-3425
▁security	-3426
▁ell	-3427
▁simply	-3428
▁parties	-3429
rain	-3430
▁rot	-3431
ew	-3432
fl	-3433
po	-3434
▁morn	-3435
change	-3436
▁horse	-3437
▁happen	-3438
▁adopted	-3439
▁unc	-3440
burgh	-3441
▁jones	-3442
▁reached	-3443
nel	-3444
▁magn	-3445
▁settled	-3446
▁villages	-3447
ada	-3448
can	-3449
ola	-3450
▁sac	-3451
▁arms	-3452
▁dial	-3453
▁behav	-3454
▁enough	-3455
▁interp	-3456
▁collabor	-3457
▁scholars	-3458
ift	-3459
▁enter	-3460
▁actually	-3461
onse	-3462
▁citiz	-3463
▁century	-3464
▁mom	-3465
▁hair	-3466
▁total	-3467
▁damage	-3468
▁earned	-3469
▁singer	-3470
ena	-3471
ancy	-3472
▁rural	-3473
▁pattern	-3474
▁slightly	-3475
▁bob	-3476
▁needed	-3477
▁formerly	-3478
oe	-3479
osh	-3480
▁oce	-3481
itation	-3482
met	-3483
ighth	-3484
▁dail	-3485
▁doub	-3486
▁thous	-3487
▁traffic	-3488
ishes	-3489
▁gives	-3490
▁accompan	-3491
▁destroyed	-3492
▁fred	-3493
▁reve	-3494
respond	-3495
▁serious	-3496
writ	-3497
▁seg	-3498
▁arab	-3499
▁kent	-3500
▁enjoy	-3501
▁scene	-3502
▁dedicated	-3503
▁correspond	-3504
arent	-3505
stone	-3506
▁coop	-3507
▁drug	-3508
▁purs	-3509
▁susp	-3510
▁leaving	-3511
▁graduated	-3512
▁didnt	-3513
▁titles	-3514
▁determin	-3515
gl	-3516
viet	-3517
▁document	-3518
dy	-3519
hens	-3520
ested	-3521
olved	-3522
▁grass	-3523
▁rapid	-3524
▁status	-3525
▁taking	-3526
▁accepted	-3527
▁condition	-3528
rey	-3529
wing	-3530
▁lee	-3531
▁charl	-3532
▁guard	-3533
cles	-3534
▁steel	-3535
▁amount	-3536
▁stated	-3537
▁comment	-3538
▁fit	-3539
▁cold	-3540
▁queen	-3541
▁unlike	-3542
▁prevent	-3543
▁recover	-3544
rect	-3545
▁basketball	-3546
icted	-3547
▁swim	-3548
▁provinc	-3549
▁cultural	-3550
kin	-3551
see	-3552
onto	-3553
ucle	-3554
▁aband	-3555
▁normal	-3556
▁responsible	-3557
▁fifth	-3558
▁sevent	-3559
▁refused	-3560
▁scotland	-3561
▁remaining	-3562
agn	-3563
▁rat	-3564
▁pian	-3565
▁weather	-3566
▁entirely	-3567
▁kore	-3568
▁boston	-3569
awa	-3570
▁spirit	-3571
▁background	-3572
ailed	-3573
▁roads	-3574
▁mexico	-3575
▁looking	-3576
▁extremely	-3577
unt	-3578
uts	-3579
▁obt	-3580
▁wel	-3581
▁weap	-3582
▁daily	-3583
▁question	-3584
▁und	-3585
▁claimed	-3586
▁heavily	-3587
▁officer	-3588
▁offices	-3589
▁protect	-3590
▁chairman	-3591
▁neighborhood	-3592
▁theme	-3593
▁compon	-3594
▁engineering	-3595
▁agricultural	-3596
asc	-3597
ses	-3598
▁genus	-3599
▁shall	-3600
▁flight	-3601
▁discovered	-3602
amic	-3603
▁sup	-3604
▁beat	-3605
▁diss	-3606
▁eyes	-3607
▁sites	-3608
▁lyrics	-3609
▁register	-3610
▁equipment	-3611
▁extensive	-3612
illy	-3613
▁fat	-3614
orders	-3615
▁favor	-3616
▁hosts	-3617
▁growth	-3618
▁resist	-3619
▁approxim	-3620
▁southwest	-3621
▁administrative	-3622
anes	-3623
▁urban	-3624
chester	-3625
▁actress	-3626
ipl	-3627
▁job	-3628
▁influenced	-3629
▁subsequent	-3630
▁luc	-3631
utation	-3632
▁counter	-3633
▁entertain	-3634
pro	-3635
▁albert	-3636
▁oxford	-3637
▁organis	-3638
▁functions	-3639
ulf	-3640
▁hop	-3641
where	-3642
▁else	-3643
▁tell	-3644
▁create	-3645
▁prince	-3646
▁initial	-3647
▁carolina	-3648
▁mathemat	-3649
▁mentioned	-3650
▁territory	-3651
ani	-3652
ypt	-3653
▁marsh	-3654
▁orange	-3655
ulations	-3656
▁classes	-3657
▁ens	-3658
▁told	-3659
▁recre	-3660
▁allows	-3661
▁soviet	-3662
entr	-3663
▁hotel	-3664
▁entered	-3665
ads	-3666
fit	-3667
▁da	-3668
fall	-3669
ging	-3670
▁heard	-3671
▁split	-3672
▁value	-3673
▁authority	-3674
▁drive	-3675
▁spread	-3676
▁follows	-3677
▁implement	-3678
yr	-3679
une	-3680
war	-3681
▁basis	-3682
▁hours	-3683
▁quality	-3684
▁administration	-3685
▁coal	-3686
▁refers	-3687
▁extended	-3688
incorporated	-3689
▁conservative	-3690
oting	-3691
▁none	-3692
▁gained	-3693
▁letter	-3694
▁temple	-3695
uary	-3696
▁wed	-3697
▁machine	-3698
▁pul	-3699
▁ray	-3700
▁pione	-3701
▁improve	-3702
▁reflect	-3703
▁renamed	-3704
▁columbia	-3705
rael	-3706
▁parks	-3707
▁figure	-3708
▁symbol	-3709
▁interior	-3710
worth	-3711
▁fully	-3712
▁advert	-3713
▁beginning	-3714
▁unincorporated	-3715
▁vice	-3716
▁spect	-3717
▁zealand	-3718
after	-3719
▁share	-3720
lets	-3721
mber	-3722
▁kit	-3723
▁perman	-3724
▁alg	-3725
▁fal	-3726
▁bear	-3727
▁medal	-3728
▁justice	-3729
rical	-3730
▁wound	-3731
▁begins	-3732
va	-3733
▁cricket	-3734
▁fix	-3735
▁flo	-3736
usion	-3737
▁laws	-3738
▁prep	-3739
▁possess	-3740
▁attention	-3741
erate	-3742
inois	-3743
▁hero	-3744
▁decor	-3745
▁rules	-3746
▁bes	-3747
▁hear	-3748
▁lady	-3749
▁thing	-3750
▁facility	-3751
▁families	-3752
▁proposed	-3753
▁applications	-3754
▁aw	-3755
▁anth	-3756
▁sched	-3757
▁portion	-3758
▁toronto	-3759
▁scientific	-3760
ech	-3761
yer	-3762
acent	-3763
▁shel	-3764
▁charge	-3765
▁deliver	-3766
ledge	-3767
▁cerem	-3768
▁seasons	-3769
▁response	-3770
▁kenn	-3771
▁suff	-3772
▁growing	-3773
cot	-3774
reng	-3775
▁flu	-3776
▁jul	-3777
▁folk	-3778
▁exact	-3779
▁flood	-3780
▁poetry	-3781
▁poly	-3782
▁image	-3783
win	-3784
▁merc	-3785
▁sher	-3786
▁presented	-3787
och	-3788
▁translated	-3789
▁oct	-3790
▁print	-3791
▁pacific	-3792
ners	-3793
▁jes	-3794
▁enem	-3795
▁script	-3796
▁waters	-3797
▁illinois	-3798
enger	-3799
ivity	-3800
ordin	-3801
ricts	-3802
▁edge	-3803
▁morning	-3804
▁classical	-3805
iques	-3806
▁regions	-3807
▁intended	-3808
▁secretary	-3809
▁contemporary	-3810
iled	-3811
▁cool	-3812
▁says	-3813
▁forced	-3814
▁cra	-3815
inity	-3816
▁basic	-3817
▁cells	-3818
▁storm	-3819
standing	-3820
▁applied	-3821
▁contact	-3822
▁flowers	-3823
▁singles	-3824
ws	-3825
ini	-3826
▁nucle	-3827
▁immigr	-3828
▁rand	-3829
▁format	-3830
▁passes	-3831
▁search	-3832
▁reasons	-3833
▁selected	-3834
ya	-3835
cks	-3836
rupt	-3837
▁hay	-3838
▁thr	-3839
▁tub	-3840
ansas	-3841
▁goes	-3842
▁drink	-3843
▁matter	-3844
▁novels	-3845
▁reject	-3846
▁jackson	-3847
▁ric	-3848
▁poll	-3849
▁guest	-3850
▁israel	-3851
▁assembly	-3852
▁victoria	-3853
▁thereafter	-3854
▁firm	-3855
▁gramm	-3856
▁academic	-3857
▁kir	-3858
▁mis	-3859
▁rid	-3860
▁bott	-3861
▁suit	-3862
▁channel	-3863
▁democratic	-3864
▁additionally	-3865
ura	-3866
onym	-3867
▁era	-3868
▁sud	-3869
works	-3870
▁alph	-3871
▁crown	-3872
▁reserv	-3873
▁opening	-3874
▁recognized	-3875
▁gri	-3876
▁veget	-3877
▁likely	-3878
▁content	-3879
▁republican	-3880
▁organizations	-3881
apes	-3882
▁jazz	-3883
▁twel	-3884
▁herit	-3885
▁roles	-3886
▁districts	-3887
mas	-3888
▁stan	-3889
▁canc	-3890
▁orche	-3891
▁quant	-3892
▁avenue	-3893
▁concentr	-3894
▁learning	-3895
body	-3896
▁bod	-3897
▁dur	-3898
▁carl	-3899
▁claims	-3900
ault	-3901
▁wing	-3902
▁neighbour	-3903
▁statistical	-3904
ij	-3905
ua	-3906
ety	-3907
nic	-3908
▁eat	-3909
▁meeting	-3910
gers	-3911
iful	-3912
▁bag	-3913
▁ped	-3914
abeth	-3915
fully	-3916
▁eliz	-3917
▁solo	-3918
▁lakes	-3919
▁advent	-3920
▁column	-3921
▁racing	-3922
▁adjacent	-3923
▁regarded	-3924
▁tournament	-3925
car	-3926
▁gh	-3927
▁fox	-3928
ockey	-3929
▁grey	-3930
bre	-3931
▁scul	-3932
▁tall	-3933
▁vocal	-3934
▁officers	-3935
▁rub	-3936
▁hydro	-3937
▁bishop	-3938
▁exists	-3939
▁impact	-3940
▁tay	-3941
▁sales	-3942
▁episodes	-3943
▁ultimately	-3944
bl	-3945
americ	-3946
▁ocean	-3947
▁covers	-3948
▁purpose	-3949
▁scottish	-3950
cul	-3951
▁ends	-3952
▁spok	-3953
▁shirt	-3954
▁memory	-3955
▁bol	-3956
light	-3957
▁articles	-3958
▁materials	-3959
▁wit	-3960
▁fine	-3961
▁salt	-3962
▁forward	-3963
uits	-3964
▁lew	-3965
itude	-3966
▁imper	-3967
▁details	-3968
▁johnson	-3969
▁internet	-3970
▁surrounded	-3971
▁dra	-3972
▁mit	-3973
▁braz	-3974
▁clin	-3975
▁portug	-3976
▁twelve	-3977
▁apparent	-3978
▁direction	-3979
▁maintained	-3980
za	-3981
▁anc	-3982
▁resour	-3983
▁streng	-3984
▁establish	-3985
▁platforms	-3986
miss	-3987
▁dropped	-3988
▁conference	-3989
arm	-3990
bit	-3991
born	-3992
sect	-3993
▁sty	-3994
▁brad	-3995
▁mand	-3996
iverse	-3997
▁prefer	-3998
iber	-3999
what	-4000
▁ban	-4001
▁bron	-4002
▁sides	-4003
▁wales	-4004
▁observ	-4005
▁neither	-4006
▁strateg	-4007
▁increase	-4008
▁contributed	-4009
▁incorporated	-4010
ellig	-4011
▁asia	-4012
▁identified	-4013
ician	-4014
▁threat	-4015
▁nations	-4016
▁historically	-4017
▁mob	-4018
while	-4019
▁jeff	-4020
▁graph	-4021
▁write	-4022
▁andrew	-4023
▁sculpt	-4024
▁digital	-4025
▁planned	-4026
▁heritage	-4027
▁alternative	-4028
mont	-4029
wick	-4030
oral	-4031
▁fro	-4032
aging	-4033
▁boat	-4034
▁felt	-4035
▁pros	-4036
▁disease	-4037
▁achieved	-4038
▁downtown	-4039
▁somewhat	-4040
gar	-4041
place	-4042
▁door	-4043
▁entr	-4044
▁egypt	-4045
▁golden	-4046
▁queens	-4047
▁experim	-4048
▁inspired	-4049
▁virt	-4050
▁rh	-4051
▁chur	-4052
▁doing	-4053
▁founder	-4054
▁analysis	-4055
eed	-4056
ita	-4057
osen	-4058
▁holly	-4059
▁liver	-4060
▁meant	-4061
▁causes	-4062
▁retire	-4063
▁holding	-4064
▁captured	-4065
▁expanded	-4066
▁otherwise	-4067
▁regularly	-4068
▁architecture	-4069
▁ta	-4070
iling	-4071
izing	-4072
▁edward	-4073
▁conduct	-4074
▁replace	-4075
▁bey	-4076
istan	-4077
▁golf	-4078
▁bright	-4079
▁easily	-4080
iana	-4081
iform	-4082
▁rome	-4083
▁whit	-4084
▁stores	-4085
▁quarter	-4086
▁entertainment	-4087
ipe	-4088
▁barb	-4089
▁visitors	-4090
ella	-4091
▁ones	-4092
▁unus	-4093
▁victory	-4094
▁announced	-4095
ala	-4096
osis	-4097
▁eag	-4098
▁sess	-4099
▁abandoned	-4100
▁ry	-4101
▁danc	-4102
▁corporation	-4103
een	-4104
verse	-4105
▁mort	-4106
▁pu	-4107
▁cycl	-4108
▁minim	-4109
▁rough	-4110
▁empire	-4111
▁workers	-4112
▁becoming	-4113
▁interview	-4114
▁programming	-4115
▁mans	-4116
▁roll	-4117
▁dutch	-4118
▁borders	-4119
▁intellig	-4120
adel	-4121
illa	-4122
▁mut	-4123
▁extra	-4124
▁merch	-4125
▁hung	-4126
▁vess	-4127
▁aspect	-4128
▁confir	-4129
▁pieces	-4130
▁believe	-4131
▁literary	-4132
mod	-4133
uten	-4134
iance	-4135
▁hors	-4136
▁shape	-4137
▁encour	-4138
▁engines	-4139
▁georgia	-4140
▁credited	-4141
▁cub	-4142
▁pup	-4143
lines	-4144
▁debut	-4145
▁colors	-4146
▁strugg	-4147
▁britain	-4148
▁constant	-4149
▁contained	-4150
pton	-4151
iring	-4152
▁whom	-4153
▁measure	-4154
▁trained	-4155
▁champion	-4156
wan	-4157
▁cel	-4158
▁vac	-4159
▁bern	-4160
▁dang	-4161
▁diam	-4162
▁hind	-4163
▁withd	-4164
▁ancest	-4165
▁hosted	-4166
▁narrow	-4167
▁serving	-4168
▁typical	-4169
▁whether	-4170
▁industries	-4171
me	-4172
▁ru	-4173
▁dor	-4174
▁eye	-4175
▁fans	-4176
encies	-4177
▁alone	-4178
▁naval	-4179
▁colour	-4180
▁climate	-4181
▁letters	-4182
▁painting	-4183
▁knowledge	-4184
kee	-4185
ouri	-4186
▁resc	-4187
▁tail	-4188
▁miles	-4189
▁tried	-4190
▁michigan	-4191
▁meanwhile	-4192
▁aver	-4193
▁score	-4194
▁tribut	-4195
▁churches	-4196
ici	-4197
dale	-4198
▁ott	-4199
▁shr	-4200
▁emper	-4201
▁consum	-4202
▁matches	-4203
▁sitting	-4204
▁distance	-4205
▁isl	-4206
▁jan	-4207
class	-4208
▁troops	-4209
▁fiction	-4210
▁resides	-4211
▁elizabeth	-4212
▁operating	-4213
▁transform	-4214
otes	-4215
▁yes	-4216
▁cous	-4217
▁hope	-4218
bourne	-4219
▁worlds	-4220
▁farming	-4221
▁sections	-4222
▁cambridge	-4223
het	-4224
hedral	-4225
▁walls	-4226
▁moving	-4227
▁decades	-4228
▁reading	-4229
▁tourism	-4230
ibl	-4231
▁jac	-4232
father	-4233
▁target	-4234
▁designs	-4235
▁figures	-4236
▁alexander	-4237
▁technical	-4238
▁gi	-4239
▁lu	-4240
dney	-4241
▁aer	-4242
▁beyond	-4243
▁advanced	-4244
▁performances	-4245
oul	-4246
put	-4247
▁ax	-4248
tery	-4249
▁dim	-4250
inger	-4251
▁astr	-4252
▁calls	-4253
▁chosen	-4254
▁reserve	-4255
▁ok	-4256
▁les	-4257
inder	-4258
▁fruit	-4259
western	-4260
▁corner	-4261
▁pressure	-4262
▁resulted	-4263
▁assistant	-4264
▁individuals	-4265
oir	-4266
anda	-4267
iday	-4268
▁ken	-4269
▁trial	-4270
▁views	-4271
▁hockey	-4272
▁article	-4273
cut	-4274
nam	-4275
hold	-4276
▁jur	-4277
▁acid	-4278
▁bond	-4279
▁convers	-4280
ga	-4281
cop	-4282
sen	-4283
▁impl	-4284
▁clean	-4285
▁freed	-4286
▁theore	-4287
▁properties	-4288
▁feed	-4289
▁suppl	-4290
▁accident	-4291
▁traditionally	-4292
ati	-4293
erts	-4294
▁kid	-4295
oring	-4296
▁defined	-4297
▁demonstr	-4298
▁organized	-4299
ato	-4300
eph	-4301
oty	-4302
▁ce	-4303
▁rug	-4304
▁tra	-4305
▁page	-4306
icient	-4307
▁habit	-4308
▁exclus	-4309
▁inhabit	-4310
▁structures	-4311
▁ram	-4312
▁operate	-4313
▁overall	-4314
▁arrested	-4315
▁potential	-4316
▁contrast	-4317
▁consisted	-4318
▁cancer	-4319
▁closely	-4320
▁shopping	-4321
appe	-4322
enge	-4323
▁marg	-4324
▁tick	-4325
▁bring	-4326
▁brazil	-4327
▁concert	-4328
▁fighting	-4329
▁powerful	-4330
▁alongside	-4331
▁everything	-4332
room	-4333
incol	-4334
▁vent	-4335
▁fresh	-4336
▁animal	-4337
▁interact	-4338
▁commander	-4339
▁opposition	-4340
ucky	-4341
▁propos	-4342
▁weight	-4343
▁descent	-4344
▁tourist	-4345
▁synt	-4346
▁schem	-4347
▁commer	-4348
▁proceed	-4349
▁incident	-4350
▁philosophy	-4351
▁arth	-4352
▁wars	-4353
▁advoc	-4354
▁labour	-4355
▁graduate	-4356
▁teaching	-4357
gian	-4358
umber	-4359
▁orth	-4360
▁safety	-4361
▁equival	-4362
▁reaction	-4363
har	-4364
iot	-4365
▁py	-4366
book	-4367
unte	-4368
▁adap	-4369
▁alco	-4370
▁banks	-4371
▁homes	-4372
▁extens	-4373
▁looked	-4374
▁reduced	-4375
▁normally	-4376
▁locations	-4377
▁situation	-4378
ilton	-4379
▁emph	-4380
atures	-4381
ception	-4382
▁choice	-4383
▁lincol	-4384
▁womens	-4385
▁efforts	-4386
▁constitu	-4387
▁shore	-4388
▁spain	-4389
▁winner	-4390
▁remember	-4391
▁techniques	-4392
chers	-4393
▁wheel	-4394
▁studios	-4395
▁greatest	-4396
▁conducted	-4397
▁application	-4398
▁tend	-4399
mission	-4400
▁citizens	-4401
burn	-4402
oured	-4403
▁cert	-4404
▁horn	-4405
▁notes	-4406
iger	-4407
▁lect	-4408
▁wrest	-4409
▁recomm	-4410
▁hunting	-4411
▁volunte	-4412
umes	-4413
▁ari	-4414
▁buff	-4415
▁core	-4416
▁housing	-4417
engers	-4418
▁divor	-4419
▁owner	-4420
▁vehicles	-4421
▁formation	-4422
▁performing	-4423
▁bomb	-4424
▁dram	-4425
▁narr	-4426
▁rate	-4427
▁talk	-4428
▁fleet	-4429
▁anything	-4430
▁attribut	-4431
▁improved	-4432
▁interred	-4433
▁straight	-4434
vis	-4435
▁ic	-4436
▁kr	-4437
ogue	-4438
▁mist	-4439
▁rear	-4440
▁achieve	-4441
▁consult	-4442
▁factory	-4443
▁reports	-4444
▁elections	-4445
▁harv	-4446
▁objects	-4447
▁distribution	-4448
alk	-4449
▁jum	-4450
▁pad	-4451
▁myth	-4452
▁sense	-4453
▁solid	-4454
▁agreed	-4455
▁opport	-4456
▁rarely	-4457
▁courses	-4458
▁focused	-4459
▁affected	-4460
▁reference	-4461
▁residential	-4462
▁sor	-4463
estic	-4464
▁clar	-4465
▁gone	-4466
▁excell	-4467
▁polish	-4468
▁instruments	-4469
ls	-4470
omot	-4471
pass	-4472
▁ign	-4473
▁spot	-4474
▁confl	-4475
▁greatly	-4476
▁writers	-4477
▁opportun	-4478
▁distinguished	-4479
▁kh	-4480
heas	-4481
▁budd	-4482
▁rein	-4483
▁seats	-4484
▁sleep	-4485
theless	-4486
▁springs	-4487
▁restaurant	-4488
▁nevertheless	-4489
▁lyn	-4490
akers	-4491
under	-4492
▁sail	-4493
▁catal	-4494
▁dress	-4495
▁drumm	-4496
▁piano	-4497
▁riding	-4498
▁signal	-4499
▁herself	-4500
▁ordered	-4501
▁visited	-4502
▁windows	-4503
▁mike	-4504
▁russia	-4505
▁streets	-4506
rid	-4507
▁jon	-4508
▁buck	-4509
american	-4510
▁address	-4511
uls	-4512
▁dub	-4513
▁hyp	-4514
ounds	-4515
▁risk	-4516
▁faith	-4517
▁seems	-4518
ographic	-4519
▁negative	-4520
▁universities	-4521
life	-4522
▁hang	-4523
▁frequ	-4524
▁formal	-4525
▁moment	-4526
▁correct	-4527
▁technique	-4528
▁reputation	-4529
▁underground	-4530
▁kil	-4531
▁lind	-4532
▁perh	-4533
▁hence	-4534
▁judge	-4535
▁broken	-4536
▁emphas	-4537
▁mascot	-4538
▁partner	-4539
▁protest	-4540
▁independence	-4541
▁controversial	-4542
▁bot	-4543
▁kel	-4544
▁pair	-4545
▁perhaps	-4546
▁predomin	-4547
▁permanent	-4548
▁appearances	-4549
col	-4550
grad	-4551
uses	-4552
▁map	-4553
▁pier	-4554
▁maxim	-4555
▁humans	-4556
▁landsc	-4557
▁taylor	-4558
▁beautiful	-4559
oys	-4560
inary	-4561
▁hour	-4562
▁prize	-4563
▁prote	-4564
▁insect	-4565
▁routes	-4566
▁senate	-4567
▁wealth	-4568
▁positions	-4569
▁q	-4570
acks	-4571
aret	-4572
mann	-4573
▁joe	-4574
▁hart	-4575
▁picture	-4576
▁receive	-4577
▁repeated	-4578
▁businesses	-4579
gu	-4580
rees	-4581
▁dogs	-4582
▁sets	-4583
▁sugar	-4584
▁crimin	-4585
▁escape	-4586
▁senator	-4587
▁employed	-4588
▁presence	-4589
▁represents	-4590
inem	-4591
ingly	-4592
▁reach	-4593
▁combat	-4594
▁please	-4595
▁purposes	-4596
▁bac	-4597
▁sax	-4598
iated	-4599
▁fuel	-4600
▁cultiv	-4601
▁cos	-4602
▁depend	-4603
▁mining	-4604
▁sydney	-4605
▁lincoln	-4606
▁opposed	-4607
▁painted	-4608
▁missouri	-4609
▁kong	-4610
▁davis	-4611
▁comedy	-4612
▁actions	-4613
▁lieuten	-4614
▁necessary	-4615
▁worldwide	-4616
▁distributed	-4617
hi	-4618
▁cav	-4619
▁wet	-4620
▁pool	-4621
▁expans	-4622
▁attempts	-4623
▁soldiers	-4624
▁cathedral	-4625
▁passenger	-4626
unk	-4627
▁ker	-4628
▁brid	-4629
▁easy	-4630
ashion	-4631
▁agent	-4632
▁joint	-4633
ropical	-4634
▁parall	-4635
▁gardens	-4636
ador	-4637
ects	-4638
▁fan	-4639
▁lam	-4640
ening	-4641
▁gent	-4642
▁legend	-4643
▁promoted	-4644
abb	-4645
child	-4646
▁price	-4647
▁retained	-4648
▁determined	-4649
▁retirement	-4650
▁approximately	-4651
▁transportation	-4652
▁leads	-4653
▁users	-4654
heastern	-4655
bra	-4656
▁try	-4657
▁join	-4658
▁migr	-4659
▁vote	-4660
▁compar	-4661
▁supply	-4662
▁controversy	-4663
aver	-4664
rete	-4665
wich	-4666
▁nap	-4667
arest	-4668
▁phen	-4669
▁roof	-4670
▁citys	-4671
▁fisher	-4672
▁conflict	-4673
▁converted	-4674
▁ori	-4675
ieval	-4676
▁bull	-4677
▁elder	-4678
▁edition	-4679
▁musicians	-4680
▁connection	-4681
vin	-4682
▁nic	-4683
▁crop	-4684
▁flav	-4685
▁musl	-4686
▁paid	-4687
▁santa	-4688
▁prepar	-4689
▁failure	-4690
▁cru	-4691
itors	-4692
stein	-4693
▁batt	-4694
▁dipl	-4695
▁stream	-4696
▁thirty	-4697
▁locomot	-4698
▁uniform	-4699
▁substant	-4700
▁anne	-4701
▁moon	-4702
▁frame	-4703
▁actual	-4704
▁varies	-4705
ographer	-4706
▁fathers	-4707
▁singing	-4708
▁nickname	-4709
▁occurred	-4710
leys	-4711
onia	-4712
▁chain	-4713
▁lewis	-4714
▁plate	-4715
▁affili	-4716
▁starred	-4717
▁visible	-4718
▁chemical	-4719
▁settlers	-4720
ek	-4721
any	-4722
set	-4723
down	-4724
rich	-4725
▁gil	-4726
▁deput	-4727
▁grade	-4728
▁ideas	-4729
▁fought	-4730
▁tennes	-4731
▁medieval	-4732
lyn	-4733
ril	-4734
icide	-4735
▁coff	-4736
▁broke	-4737
▁items	-4738
▁scout	-4739
▁powers	-4740
▁shared	-4741
▁behavior	-4742
gal	-4743
iny	-4744
ager	-4745
▁sed	-4746
▁fame	-4747
▁plain	-4748
▁scored	-4749
▁briefly	-4750
▁classic	-4751
▁emperor	-4752
▁peoples	-4753
▁leadership	-4754
ela	-4755
sons	-4756
umin	-4757
▁cot	-4758
▁sky	-4759
prise	-4760
adelph	-4761
▁vehicle	-4762
▁nominated	-4763
▁lieutenant	-4764
▁educational	-4765
▁considerable	-4766
urer	-4767
▁nep	-4768
▁rhy	-4769
tical	-4770
stream	-4771
▁honour	-4772
▁speech	-4773
▁adapted	-4774
▁sisters	-4775
ras	-4776
▁acts	-4777
▁soil	-4778
▁pilot	-4779
▁produces	-4780
▁requires	-4781
jo	-4782
▁u	-4783
berts	-4784
▁chart	-4785
▁berlin	-4786
▁daniel	-4787
▁internal	-4788
▁protection	-4789
ien	-4790
stra	-4791
ieties	-4792
▁stood	-4793
▁pret	-4794
▁compl	-4795
▁harry	-4796
▁portray	-4797
▁tennessee	-4798
▁philadelph	-4799
la	-4800
real	-4801
▁sin	-4802
▁bang	-4803
▁fear	-4804
▁hong	-4805
▁scar	-4806
▁sept	-4807
▁cryst	-4808
▁piece	-4809
▁movies	-4810
▁electronic	-4811
inson	-4812
▁ches	-4813
▁gate	-4814
▁knew	-4815
▁opin	-4816
▁finds	-4817
▁coming	-4818
▁leaders	-4819
▁expected	-4820
▁imperial	-4821
▁maryland	-4822
▁temperature	-4823
aka	-4824
iter	-4825
▁ing	-4826
▁max	-4827
▁tow	-4828
▁bann	-4829
▁heat	-4830
▁pink	-4831
▁cards	-4832
▁courts	-4833
▁arrived	-4834
▁combined	-4835
▁earliest	-4836
▁americans	-4837
▁mall	-4838
▁opera	-4839
▁favour	-4840
▁sunday	-4841
entially	-4842
▁describes	-4843
▁row	-4844
▁dies	-4845
▁outd	-4846
▁horses	-4847
▁papers	-4848
▁useful	-4849
▁swimming	-4850
▁significantly	-4851
▁gran	-4852
▁pron	-4853
▁rebu	-4854
anches	-4855
▁march	-4856
▁mouth	-4857
▁olympic	-4858
▁hollywood	-4859
▁suggested	-4860
▁generation	-4861
▁ast	-4862
orith	-4863
rises	-4864
▁dece	-4865
▁flying	-4866
▁showed	-4867
▁contest	-4868
▁occupied	-4869
▁opposite	-4870
▁strongly	-4871
kes	-4872
adow	-4873
omen	-4874
orph	-4875
▁las	-4876
isted	-4877
ption	-4878
▁baby	-4879
idents	-4880
▁global	-4881
▁minnes	-4882
▁suprem	-4883
▁algorith	-4884
▁entrance	-4885
▁frequent	-4886
▁observed	-4887
▁interests	-4888
▁canal	-4889
▁involve	-4890
▁swedish	-4891
▁preserved	-4892
▁recordings	-4893
ayer	-4894
▁synd	-4895
▁crowd	-4896
▁steve	-4897
▁accompl	-4898
▁disappe	-4899
▁assigned	-4900
▁medicine	-4901
rie	-4902
▁hub	-4903
▁lun	-4904
▁shut	-4905
▁chris	-4906
▁crime	-4907
▁orders	-4908
▁unusual	-4909
▁audience	-4910
▁participated	-4911
pet	-4912
ibly	-4913
uous	-4914
▁rim	-4915
mouth	-4916
▁vocals	-4917
atically	-4918
▁injured	-4919
▁challeng	-4920
▁compared	-4921
▁founding	-4922
pool	-4923
▁brig	-4924
▁filmed	-4925
▁issued	-4926
▁evening	-4927
▁childrens	-4928
ght	-4929
▁scr	-4930
▁bath	-4931
▁comic	-4932
▁sixth	-4933
oration	-4934
▁cousin	-4935
▁affairs	-4936
▁attacks	-4937
▁defense	-4938
▁grounds	-4939
▁effective	-4940
▁manchester	-4941
zen	-4942
eland	-4943
▁liqu	-4944
▁sell	-4945
istics	-4946
▁scale	-4947
▁watch	-4948
▁select	-4949
▁sought	-4950
▁ability	-4951
▁inhabitants	-4952
▁arc	-4953
▁tam	-4954
▁bapt	-4955
▁ment	-4956
ighter	-4957
▁cloth	-4958
▁exchange	-4959
▁pictures	-4960
aints	-4961
▁coat	-4962
▁subd	-4963
▁wings	-4964
▁motion	-4965
▁scenes	-4966
▁weekly	-4967
▁credits	-4968
▁	-4969
e	-4970
a	-4971
t	-4972
i	-4973
s	-4974
o	-4975
n	-4976
r	-4977
h	-4978
l	-4979
d	-4980
c	-4981
u	-4982
m	-4983
f	-4984
p	-4985
g	-4986
w	-4987
y	-4988
b	-4989
v	-4990
k	-4991
x	-4992
j	-4993
z	-4994
q	-4995
