<pad>	0
<unk>	0
<s>	0
</s>	0
▁t	-0
he	-1
▁a	-2
▁the	-3
in	-4
▁s	-5
▁w	-6
▁o	-7
re	-8
nd	-9
▁b	-10
▁h	-11
er	-12
▁m	-13
▁i	-14
ou	-15
▁c	-16
▁f	-17
ed	-18
at	-19
▁and	-20
en	-21
▁of	-22
on	-23
▁to	-24
is	-25
▁p	-26
ing	-27
▁d	-28
▁th	-29
or	-30
es	-31
▁he	-32
▁in	-33
▁l	-34
it	-35
an	-36
ar	-37
as	-38
ll	-39
▁n	-40
▁g	-41
om	-42
▁be	-43
▁ha	-44
▁e	-45
le	-46
ot	-47
ic	-48
ut	-49
ow	-50
▁wh	-51
▁it	-52
▁y	-53
ld	-54
▁that	-55
ly	-56
ve	-57
▁was	-58
se	-59
st	-60
ent	-61
▁on	-62
id	-63
gh	-64
▁re	-65
im	-66
ion	-67
▁u	-68
ce	-69
▁you	-70
ver	-71
al	-72
▁we	-73
▁as	-74
▁for	-75
ir	-76
et	-77
ith	-78
ay	-79
▁his	-80
▁r	-81
▁with	-82
▁st	-83
ur	-84
ad	-85
ght	-86
▁an	-87
▁is	-88
ter	-89
▁not	-90
▁had	-91
ac	-92
▁her	-93
her	-94
am	-95
▁at	-96
oo	-97
▁but	-98
ould	-99
▁se	-100
▁she	-101
▁k	-102
▁fr	-103
▁sh	-104
ain	-105
▁su	-106
▁so	-107
ill	-108
ch	-109
ight	-110
▁sa	-111
▁him	-112
▁me	-113
ct	-114
red	-115
ro	-116
all	-117
il	-118
ess	-119
ke	-120
▁they	-121
ore	-122
▁de	-123
▁whe	-124
▁all	-125
ich	-126
▁by	-127
▁con	-128
pp	-129
ri	-130
▁ne	-131
▁my	-132
▁this	-133
ome	-134
us	-135
▁have	-136
▁li	-137
▁which	-138
▁ch	-139
ul	-140
qu	-141
▁j	-142
nt	-143
▁do	-144
▁from	-145
ge	-146
▁up	-147
ard	-148
▁or	-149
▁v	-150
▁were	-151
▁ex	-152
ant	-153
res	-154
pe	-155
th	-156
▁one	-157
▁said	-158
▁no	-159
and	-160
est	-161
ble	-162
ation	-163
▁man	-164
▁who	-165
▁al	-166
▁there	-167
ous	-168
ers	-169
▁them	-170
ie	-171
ust	-172
▁fe	-173
very	-174
ame	-175
ist	-176
▁when	-177
▁int	-178
▁their	-179
ra	-180
ast	-181
os	-182
ind	-183
ood	-184
fe	-185
lf	-186
▁are	-187
ong	-188
art	-189
▁go	-190
▁le	-191
out	-192
ate	-193
▁kn	-194
▁com	-195
our	-196
▁would	-197
ound	-198
▁wor	-199
▁if	-200
▁ab	-201
ak	-202
▁out	-203
em	-204
um	-205
ol	-206
▁will	-207
un	-208
▁mis	-209
▁what	-210
ig	-211
ap	-212
ough	-213
one	-214
if	-215
itt	-216
▁been	-217
ked	-218
▁pl	-219
ive	-220
▁tr	-221
▁pro	-222
▁ar	-223
own	-224
reat	-225
ity	-226
ther	-227
▁un	-228
ven	-229
▁ro	-230
▁then	-231
▁br	-232
▁af	-233
▁sp	-234
▁pr	-235
▁qu	-236
▁tw	-237
self	-238
ost	-239
ort	-240
hed	-241
▁ag	-242
▁could	-243
▁am	-244
ace	-245
ure	-246
▁im	-247
ake	-248
▁some	-249
▁en	-250
▁any	-251
ack	-252
ag	-253
▁more	-254
▁tim	-255
▁into	-256
au	-257
ep	-258
▁cl	-259
ies	-260
ry	-261
ck	-262
▁gr	-263
op	-264
▁your	-265
nder	-266
hing	-267
ose	-268
ved	-269
▁bo	-270
el	-271
▁other	-272
▁now	-273
▁its	-274
ance	-275
are	-276
▁very	-277
▁can	-278
▁than	-279
able	-280
ine	-281
▁dis	-282
ide	-283
▁did	-284
ass	-285
ittle	-286
way	-287
▁co	-288
▁little	-289
▁us	-290
▁loo	-291
▁like	-292
ite	-293
▁ad	-294
▁bl	-295
ence	-296
▁day	-297
urn	-298
cc	-299
ment	-300
ought	-301
▁time	-302
fore	-303
▁over	-304
other	-305
ade	-306
ab	-307
▁te	-308
▁how	-309
pt	-310
▁great	-311
ree	-312
ci	-313
▁about	-314
ice	-315
▁after	-316
▁lo	-317
wn	-318
▁per	-319
▁fl	-320
▁know	-321
▁upon	-322
de	-323
pl	-324
ish	-325
ally	-326
▁see	-327
▁too	-328
ings	-329
▁again	-330
▁well	-331
▁has	-332
ars	-333
ink	-334
▁our	-335
ress	-336
ount	-337
▁only	-338
▁two	-339
▁po	-340
▁hand	-341
▁pe	-342
▁should	-343
ire	-344
ving	-345
ves	-346
▁good	-347
ather	-348
▁app	-349
▁say	-350
ty	-351
ions	-352
▁down	-353
ile	-354
per	-355
ont	-356
▁before	-357
we	-358
▁every	-359
ans	-360
age	-361
▁old	-362
▁made	-363
tain	-364
ang	-365
▁mu	-366
▁thr	-367
te	-368
▁long	-369
▁these	-370
ied	-371
ick	-372
▁mar	-373
▁such	-374
▁where	-375
▁pre	-376
ful	-377
▁sc	-378
ue	-379
▁sm	-380
▁str	-381
▁part	-382
ild	-383
ious	-384
ward	-385
ft	-386
act	-387
▁fir	-388
ull	-389
▁must	-390
▁off	-391
▁under	-392
▁came	-393
ated	-394
▁bec	-395
▁miss	-396
▁never	-397
▁even	-398
▁fo	-399
ord	-400
ness	-401
▁may	-402
ber	-403
▁rem	-404
▁way	-405
▁spe	-406
led	-407
ect	-408
▁much	-409
▁ye	-410
orn	-411
▁mister	-412
▁come	-413
ren	-414
▁ey	-415
ach	-416
▁gl	-417
ary	-418
▁cont	-419
ise	-420
▁back	-421
▁think	-422
▁first	-423
▁let	-424
▁bet	-425
▁thought	-426
▁ob	-427
▁men	-428
ud	-429
▁just	-430
▁des	-431
▁own	-432
▁mo	-433
cl	-434
▁res	-435
▁sl	-436
▁look	-437
▁ho	-438
co	-439
ip	-440
ried	-441
ff	-442
▁here	-443
llow	-444
ady	-445
▁himself	-446
▁car	-447
▁fa	-448
▁might	-449
ily	-450
▁comp	-451
▁seem	-452
▁went	-453
ave	-454
▁cr	-455
oss	-456
anc	-457
▁wat	-458
ouse	-459
ath	-460
▁beg	-461
ons	-462
iz	-463
▁imp	-464
▁through	-465
▁em	-466
▁most	-467
int	-468
▁pres	-469
▁bel	-470
▁cons	-471
▁those	-472
▁without	-473
ors	-474
▁away	-475
▁acc	-476
▁get	-477
▁make	-478
▁head	-479
▁life	-480
ks	-481
▁new	-482
▁comm	-483
▁pass	-484
hes	-485
ened	-486
▁jo	-487
▁house	-488
▁call	-489
▁turn	-490
▁som	-491
ens	-492
ds	-493
▁still	-494
▁many	-495
less	-496
▁op	-497
▁eyes	-498
▁ent	-499
ix	-500
▁being	-501
▁wom	-502
ause	-503
▁somet	-504
▁found	-505
ory	-506
les	-507
▁night	-508
▁shall	-509
ign	-510
▁three	-511
ared	-512
▁take	-513
▁last	-514
▁ear	-515
▁while	-516
▁peop	-517
iv	-518
▁ind	-519
ible	-520
▁ser	-521
▁put	-522
▁nothing	-523
ition	-524
ase	-525
▁count	-526
aking	-527
ng	-528
▁att	-529
▁la	-530
▁same	-531
dy	-532
vent	-533
▁tell	-534
▁ret	-535
fect	-536
ark	-537
oth	-538
ult	-539
▁people	-540
▁mat	-541
pect	-542
▁young	-543
ered	-544
▁saw	-545
▁yet	-546
igh	-547
▁dont	-548
▁nor	-549
▁wr	-550
▁far	-551
▁right	-552
▁place	-553
▁hu	-554
▁dist	-555
▁once	-556
▁child	-557
▁nat	-558
ys	-559
▁inst	-560
▁arm	-561
▁another	-562
▁though	-563
ations	-564
get	-565
▁room	-566
ict	-567
▁end	-568
▁work	-569
iend	-570
▁cour	-571
ub	-572
ew	-573
ian	-574
ince	-575
▁happ	-576
air	-577
▁friend	-578
▁father	-579
▁inte	-580
▁ever	-581
▁rep	-582
▁took	-583
▁ac	-584
▁char	-585
▁set	-586
▁supp	-587
ished	-588
av	-589
gg	-590
ia	-591
▁want	-592
▁light	-593
cess	-594
sel	-595
▁mind	-596
▁pers	-597
thing	-598
▁things	-599
▁act	-600
▁face	-601
▁cap	-602
so	-603
ertain	-604
▁ple	-605
▁gen	-606
▁heart	-607
irl	-608
ject	-609
▁ke	-610
▁missus	-611
ently	-612
▁form	-613
ower	-614
man	-615
ways	-616
▁sub	-617
▁world	-618
▁left	-619
▁find	-620
▁wa	-621
▁asked	-622
▁dif	-623
alk	-624
▁sw	-625
▁looked	-626
ange	-627
der	-628
lt	-629
▁mom	-630
▁war	-631
pped	-632
▁king	-633
▁moment	-634
▁thing	-635
▁always	-636
▁soon	-637
▁sat	-638
ical	-639
▁mother	-640
ced	-641
▁rel	-642
ters	-643
▁el	-644
rew	-645
▁appe	-646
ple	-647
orm	-648
ling	-649
▁girl	-650
▁gu	-651
▁eng	-652
▁sur	-653
dd	-654
ither	-655
▁yes	-656
▁ans	-657
▁seemed	-658
▁poss	-659
▁love	-660
▁because	-661
▁ill	-662
▁give	-663
aught	-664
▁why	-665
▁follow	-666
▁reg	-667
ual	-668
▁heard	-669
aut	-670
▁gi	-671
land	-672
ret	-673
▁something	-674
▁sir	-675
▁ma	-676
▁wind	-677
▁home	-678
▁years	-679
iver	-680
▁inf	-681
ched	-682
▁going	-683
ning	-684
▁rest	-685
▁vo	-686
▁unt	-687
ted	-688
ne	-689
ond	-690
▁cle	-691
ph	-692
▁water	-693
▁return	-694
ever	-695
▁del	-696
▁got	-697
▁feel	-698
▁four	-699
▁bu	-700
▁bre	-701
▁each	-702
▁hands	-703
▁ph	-704
ited	-705
cept	-706
▁against	-707
ss	-708
▁few	-709
ook	-710
▁door	-711
▁belie	-712
ner	-713
▁told	-714
▁exp	-715
▁conf	-716
ru	-717
▁kind	-718
▁ass	-719
ail	-720
ool	-721
most	-722
ined	-723
ial	-724
▁also	-725
▁hor	-726
▁side	-727
▁certain	-728
ps	-729
▁near	-730
▁hard	-731
ired	-732
▁min	-733
▁sil	-734
▁knew	-735
ting	-736
rest	-737
▁hel	-738
row	-739
iness	-740
▁began	-741
▁hum	-742
▁gener	-743
▁having	-744
▁mon	-745
▁inc	-746
▁half	-747
▁ter	-748
▁care	-749
ib	-750
ream	-751
▁pur	-752
▁better	-753
ason	-754
▁among	-755
▁woman	-756
▁done	-757
▁called	-758
▁enough	-759
oub	-760
▁che	-761
aps	-762
aken	-763
ully	-764
▁dra	-765
een	-766
▁quite	-767
gether	-768
▁tre	-769
▁lar	-770
ates	-771
ock	-772
▁oh	-773
selves	-774
▁beh	-775
▁inde	-776
▁whole	-777
ten	-778
ying	-779
▁ste	-780
ised	-781
ross	-782
ction	-783
▁seen	-784
ier	-785
▁six	-786
▁eight	-787
▁occ	-788
▁small	-789
ces	-790
ween	-791
uth	-792
ank	-793
▁ref	-794
▁cur	-795
▁between	-796
▁hour	-797
▁pleas	-798
▁col	-799
▁days	-800
▁god	-801
▁does	-802
▁morn	-803
▁add	-804
▁tra	-805
▁toward	-806
▁sou	-807
ents	-808
ular	-809
▁both	-810
▁turned	-811
ndred	-812
▁hundred	-813
▁course	-814
▁gave	-815
ged	-816
ures	-817
ense	-818
▁beaut	-819
osed	-820
▁ins	-821
▁inter	-822
▁keep	-823
▁read	-824
▁sim	-825
▁ed	-826
▁wo	-827
ating	-828
▁open	-829
▁sk	-830
▁point	-831
▁fore	-832
▁high	-833
ins	-834
▁almost	-835
▁however	-836
ute	-837
bo	-838
als	-839
▁sent	-840
▁land	-841
▁show	-842
▁sure	-843
▁morning	-844
ained	-845
vel	-846
▁poor	-847
▁ev	-848
▁name	-849
▁felt	-850
xt	-851
▁met	-852
▁white	-853
▁best	-854
▁whom	-855
▁until	-856
▁fam	-857
aint	-858
uck	-859
its	-860
▁sle	-861
▁words	-862
▁repl	-863
▁country	-864
amp	-865
▁stand	-866
dden	-867
▁stood	-868
haps	-869
ned	-870
▁perhaps	-871
aster	-872
▁thir	-873
▁power	-874
aring	-875
▁dear	-876
▁prin	-877
enty	-878
▁lady	-879
▁bus	-880
▁gre	-881
▁sun	-882
up	-883
ung	-884
▁mean	-885
rent	-886
▁pa	-887
▁myself	-888
▁since	-889
iet	-890
▁lat	-891
▁fact	-892
du	-893
▁sudden	-894
▁herself	-895
▁gra	-896
▁less	-897
▁use	-898
▁bro	-899
▁dr	-900
ately	-901
▁contin	-902
not	-903
rib	-904
▁dark	-905
med	-906
▁others	-907
▁voice	-908
▁adv	-909
▁round	-910
▁underst	-911
▁vis	-912
▁cat	-913
▁need	-914
▁together	-915
▁bar	-916
▁ide	-917
▁mil	-918
▁brought	-919
▁anything	-920
▁aw	-921
▁wi	-922
▁lay	-923
▁law	-924
▁quest	-925
▁pat	-926
▁present	-927
cei	-928
▁par	-929
▁next	-930
▁till	-931
fully	-932
▁unc	-933
▁fin	-934
▁replied	-935
▁cond	-936
▁sn	-937
ows	-938
eter	-939
nded	-940
▁fall	-941
▁person	-942
▁sy	-943
▁help	-944
▁feet	-945
▁five	-946
▁air	-947
▁adm	-948
ured	-949
▁indeed	-950
iss	-951
▁har	-952
ments	-953
▁full	-954
▁large	-955
ities	-956
▁black	-957
▁ext	-958
▁mor	-959
▁themselves	-960
▁matter	-961
ants	-962
ton	-963
▁interest	-964
▁along	-965
iled	-966
uring	-967
oc	-968
ts	-969
▁spo	-970
▁es	-971
ering	-972
▁looking	-973
ressed	-974
▁thus	-975
▁doct	-976
▁rather	-977
▁ele	-978
fort	-979
oney	-980
vers	-981
lic	-982
▁boy	-983
▁dire	-984
ash	-985
▁twenty	-986
▁real	-987
▁taken	-988
akes	-989
▁word	-990
▁lord	-991
▁pol	-992
ention	-993
▁cried	-994
ably	-995
▁doub	-996
ove	-997
itu	-998
pr	-999
oun	-1000
▁opp	-1001
▁gent	-1002
▁hope	-1003
ield	-1004
▁fire	-1005
▁rec	-1006
mb	-1007
▁cor	-1008
▁cannot	-1009
▁run	-1010
az	-1011
▁thous	-1012
▁diffe	-1013
▁speak	-1014
▁children	-1015
ached	-1016
▁thousand	-1017
▁mer	-1018
▁wood	-1019
▁dep	-1020
ene	-1021
▁swe	-1022
▁death	-1023
▁nature	-1024
▁bed	-1025
▁bes	-1026
ued	-1027
▁sound	-1028
▁serv	-1029
▁whose	-1030
▁suff	-1031
▁mount	-1032
▁gone	-1033
▁reason	-1034
tle	-1035
▁talk	-1036
ided	-1037
▁sec	-1038
ances	-1039
▁inv	-1040
ets	-1041
▁dec	-1042
▁true	-1043
▁behind	-1044
▁wonder	-1045
app	-1046
▁const	-1047
▁red	-1048
▁prom	-1049
▁art	-1050
ison	-1051
ains	-1052
▁lau	-1053
od	-1054
oud	-1055
▁sing	-1056
▁close	-1057
ief	-1058
▁state	-1059
▁compan	-1060
▁earth	-1061
▁believe	-1062
▁hold	-1063
▁body	-1064
illed	-1065
▁wife	-1066
▁play	-1067
▁passed	-1068
▁ground	-1069
iting	-1070
me	-1071
used	-1072
▁hon	-1073
▁friends	-1074
ery	-1075
▁ra	-1076
cy	-1077
▁gentle	-1078
▁fort	-1079
▁start	-1080
▁fif	-1081
ians	-1082
▁money	-1083
aces	-1084
ides	-1085
▁num	-1086
fic	-1087
▁tem	-1088
▁often	-1089
▁obs	-1090
▁fur	-1091
wered	-1092
ken	-1093
▁dead	-1094
▁therefore	-1095
ceed	-1096
▁remem	-1097
▁alone	-1098
ually	-1099
▁hur	-1100
ane	-1101
▁sea	-1102
▁answered	-1103
cond	-1104
ceived	-1105
▁bir	-1106
▁prop	-1107
oy	-1108
og	-1109
▁deep	-1110
▁given	-1111
▁spr	-1112
▁spir	-1113
▁short	-1114
osition	-1115
▁strong	-1116
▁ir	-1117
ept	-1118
aced	-1119
ines	-1120
owed	-1121
▁cir	-1122
▁bur	-1123
▁hear	-1124
hn	-1125
▁horse	-1126
▁second	-1127
anger	-1128
▁leave	-1129
be	-1130
ider	-1131
hen	-1132
▁pri	-1133
gth	-1134
ized	-1135
▁sign	-1136
body	-1137
▁fell	-1138
wer	-1139
▁eas	-1140
ific	-1141
vern	-1142
▁ca	-1143
▁brother	-1144
▁ten	-1145
▁stre	-1146
▁abs	-1147
vered	-1148
▁ce	-1149
▁pap	-1150
▁gold	-1151
read	-1152
▁order	-1153
▁dri	-1154
▁john	-1155
iful	-1156
▁chr	-1157
▁town	-1158
▁general	-1159
▁city	-1160
▁wall	-1161
▁aff	-1162
▁lear	-1163
idd	-1164
▁sch	-1165
▁ru	-1166
ages	-1167
▁really	-1168
▁itself	-1169
unt	-1170
▁expl	-1171
▁doctor	-1172
▁ask	-1173
▁son	-1174
▁above	-1175
ident	-1176
▁question	-1177
▁tri	-1178
▁fair	-1179
▁least	-1180
▁within	-1181
▁wish	-1182
▁doubt	-1183
▁dream	-1184
▁known	-1185
▁master	-1186
▁times	-1187
ution	-1188
▁used	-1189
men	-1190
ready	-1191
▁big	-1192
▁already	-1193
ching	-1194
▁women	-1195
▁mag	-1196
▁coming	-1197
▁during	-1198
▁necess	-1199
▁whether	-1200
ety	-1201
▁mus	-1202
▁human	-1203
gn	-1204
▁dro	-1205
▁leg	-1206
▁thou	-1207
▁understand	-1208
▁case	-1209
▁soci	-1210
▁circ	-1211
▁around	-1212
▁sever	-1213
imes	-1214
▁clear	-1215
aim	-1216
hip	-1217
▁prof	-1218
▁reco	-1219
▁list	-1220
▁sight	-1221
▁expect	-1222
▁mad	-1223
▁returned	-1224
▁fear	-1225
▁either	-1226
ience	-1227
▁disc	-1228
▁lad	-1229
▁meet	-1230
▁became	-1231
ale	-1232
▁held	-1233
▁means	-1234
▁captain	-1235
▁river	-1236
▁quick	-1237
▁suddenly	-1238
▁sum	-1239
tered	-1240
▁exc	-1241
▁obser	-1242
▁wal	-1243
▁lea	-1244
▁sort	-1245
▁cal	-1246
▁dem	-1247
▁sleep	-1248
aughter	-1249
ger	-1250
▁evening	-1251
old	-1252
▁object	-1253
ote	-1254
lish	-1255
▁hus	-1256
▁soul	-1257
iew	-1258
ott	-1259
▁lost	-1260
▁making	-1261
▁past	-1262
▁several	-1263
▁bat	-1264
▁everything	-1265
ient	-1266
▁bring	-1267
uc	-1268
▁table	-1269
here	-1270
ape	-1271
▁cut	-1272
eric	-1273
▁step	-1274
▁equ	-1275
▁live	-1276
▁year	-1277
▁cent	-1278
ffect	-1279
▁kept	-1280
▁foot	-1281
▁govern	-1282
▁jud	-1283
ility	-1284
▁perfect	-1285
▁appro	-1286
▁beautiful	-1287
▁else	-1288
lly	-1289
▁ran	-1290
ister	-1291
▁manner	-1292
▁dev	-1293
▁charac	-1294
▁prov	-1295
cious	-1296
▁says	-1297
▁est	-1298
▁mist	-1299
▁ship	-1300
▁thats	-1301
ern	-1302
▁pal	-1303
▁squ	-1304
▁towards	-1305
▁corn	-1306
▁different	-1307
▁proper	-1308
ught	-1309
▁cant	-1310
▁strange	-1311
▁sometimes	-1312
▁exper	-1313
▁fellow	-1314
▁possible	-1315
oon	-1316
ingly	-1317
llect	-1318
▁anim	-1319
▁pie	-1320
▁pub	-1321
▁road	-1322
▁become	-1323
iam	-1324
▁stra	-1325
▁effect	-1326
▁exist	-1327
▁subject	-1328
▁rose	-1329
▁family	-1330
ards	-1331
▁walk	-1332
iously	-1333
rence	-1334
lled	-1335
▁lead	-1336
▁appear	-1337
▁christ	-1338
▁arms	-1339
▁grand	-1340
itted	-1341
▁wild	-1342
owing	-1343
▁sal	-1344
▁bad	-1345
▁free	-1346
▁fre	-1347
▁cold	-1348
▁fine	-1349
▁business	-1350
▁diffic	-1351
▁hes	-1352
▁conc	-1353
ative	-1354
▁low	-1355
▁natur	-1356
▁consider	-1357
airs	-1358
teen	-1359
▁comple	-1360
▁ut	-1361
bed	-1362
▁arri	-1363
▁answer	-1364
ony	-1365
▁sto	-1366
▁ready	-1367
▁truth	-1368
▁disco	-1369
band	-1370
▁hen	-1371
▁win	-1372
▁story	-1373
▁bit	-1374
▁rock	-1375
▁creat	-1376
▁express	-1377
▁id	-1378
▁pret	-1379
▁direct	-1380
▁cast	-1381
▁able	-1382
▁requ	-1383
▁idea	-1384
▁followed	-1385
▁possess	-1386
rie	-1387
▁tou	-1388
▁pain	-1389
▁prince	-1390
▁eye	-1391
ouble	-1392
▁mur	-1393
tern	-1394
▁dest	-1395
mer	-1396
▁except	-1397
ased	-1398
▁husband	-1399
▁begin	-1400
▁ann	-1401
ey	-1402
▁respect	-1403
eth	-1404
ices	-1405
▁across	-1406
▁spirit	-1407
by	-1408
▁didnt	-1409
▁hair	-1410
une	-1411
ination	-1412
▁chur	-1413
▁excl	-1414
▁succ	-1415
▁accord	-1416
▁common	-1417
utes	-1418
▁mere	-1419
▁val	-1420
▁quiet	-1421
▁partic	-1422
▁carried	-1423
▁soft	-1424
itting	-1425
empt	-1426
▁reached	-1427
▁surpr	-1428
▁rich	-1429
▁heav	-1430
▁command	-1431
ots	-1432
▁blood	-1433
nding	-1434
▁glad	-1435
▁cross	-1436
alth	-1437
ert	-1438
anged	-1439
▁school	-1440
antly	-1441
ms	-1442
isf	-1443
▁letter	-1444
▁sold	-1445
▁wee	-1446
▁happy	-1447
▁gard	-1448
▁fight	-1449
aw	-1450
▁flo	-1451
▁forg	-1452
ah	-1453
▁thy	-1454
▁tree	-1455
▁character	-1456
br	-1457
▁americ	-1458
king	-1459
▁din	-1460
▁div	-1461
▁hill	-1462
ract	-1463
▁sus	-1464
ham	-1465
▁produ	-1466
▁longer	-1467
▁appeared	-1468
▁slow	-1469
▁occas	-1470
ats	-1471
▁imag	-1472
ones	-1473
to	-1474
ches	-1475
▁fav	-1476
▁var	-1477
▁green	-1478
▁view	-1479
▁continued	-1480
ths	-1481
oura	-1482
itude	-1483
▁vir	-1484
▁success	-1485
▁hea	-1486
▁purp	-1487
▁account	-1488
ising	-1489
▁sens	-1490
▁regard	-1491
gin	-1492
▁ve	-1493
▁window	-1494
umb	-1495
▁hast	-1496
▁rus	-1497
ug	-1498
▁number	-1499
▁english	-1500
▁sor	-1501
▁stri	-1502
use	-1503
▁dut	-1504
ask	-1505
▁break	-1506
medi	-1507
▁exam	-1508
▁mot	-1509
▁scar	-1510
▁taking	-1511
▁saying	-1512
▁import	-1513
▁esc	-1514
▁pen	-1515
ality	-1516
▁decl	-1517
▁move	-1518
▁later	-1519
ils	-1520
▁ought	-1521
▁suppose	-1522
▁ap	-1523
▁hours	-1524
▁public	-1525
ump	-1526
▁dog	-1527
ls	-1528
ster	-1529
▁danger	-1530
▁sweet	-1531
ric	-1532
▁church	-1533
▁ive	-1534
▁prep	-1535
▁quar	-1536
▁sense	-1537
▁trans	-1538
▁wont	-1539
▁bright	-1540
ames	-1541
▁satisf	-1542
▁hung	-1543
▁daughter	-1544
▁def	-1545
▁eff	-1546
▁stay	-1547
▁spoke	-1548
▁port	-1549
▁immedi	-1550
▁thee	-1551
▁disp	-1552
▁wanted	-1553
▁party	-1554
▁certainly	-1555
▁heaven	-1556
▁opened	-1557
▁draw	-1558
▁seven	-1559
▁secret	-1560
▁sevent	-1561
▁carry	-1562
▁field	-1563
cul	-1564
▁cry	-1565
▁street	-1566
ze	-1567
ime	-1568
▁tom	-1569
▁book	-1570
▁prot	-1571
ize	-1572
▁blue	-1573
ism	-1574
▁prob	-1575
owers	-1576
▁lived	-1577
▁remember	-1578
iling	-1579
▁pretty	-1580
▁sho	-1581
▁delight	-1582
ley	-1583
▁breat	-1584
ann	-1585
▁tried	-1586
▁ord	-1587
▁smo	-1588
▁worth	-1589
▁received	-1590
▁eighteen	-1591
▁len	-1592
▁shad	-1593
ury	-1594
▁sol	-1595
idence	-1596
▁led	-1597
▁disapp	-1598
bit	-1599
▁eat	-1600
▁hot	-1601
ney	-1602
▁offic	-1603
▁alth	-1604
ror	-1605
▁uncle	-1606
▁although	-1607
ledge	-1608
▁seems	-1609
riage	-1610
▁dress	-1611
▁maj	-1612
▁feeling	-1613
day	-1614
▁front	-1615
li	-1616
▁princi	-1617
▁acqu	-1618
side	-1619
▁bey	-1620
▁fig	-1621
▁none	-1622
▁forward	-1623
uct	-1624
▁stud	-1625
▁beyond	-1626
▁pay	-1627
▁sad	-1628
▁tor	-1629
inct	-1630
▁ge	-1631
▁self	-1632
gr	-1633
▁entire	-1634
▁particular	-1635
▁entered	-1636
▁bene	-1637
lect	-1638
▁fast	-1639
▁neigh	-1640
▁garden	-1641
▁med	-1642
▁girls	-1643
▁mill	-1644
▁early	-1645
ead	-1646
arent	-1647
▁cause	-1648
▁neighb	-1649
▁living	-1650
▁princess	-1651
▁phil	-1652
▁accom	-1653
aimed	-1654
▁neither	-1655
resh	-1656
▁further	-1657
▁bra	-1658
▁mou	-1659
▁age	-1660
▁mem	-1661
els	-1662
▁affect	-1663
▁miles	-1664
▁pray	-1665
pper	-1666
ously	-1667
ilt	-1668
▁pract	-1669
▁wis	-1670
▁boys	-1671
▁hist	-1672
▁forth	-1673
▁cre	-1674
▁bill	-1675
▁crow	-1676
▁line	-1677
▁chief	-1678
▁nearly	-1679
▁det	-1680
▁bab	-1681
▁da	-1682
▁clot	-1683
▁visit	-1684
▁joy	-1685
▁news	-1686
▁comfort	-1687
▁laugh	-1688
▁ang	-1689
▁lab	-1690
▁repe	-1691
iar	-1692
ists	-1693
▁vill	-1694
▁change	-1695
▁minutes	-1696
▁occasion	-1697
anced	-1698
▁court	-1699
▁doing	-1700
▁super	-1701
ov	-1702
▁pleasure	-1703
uff	-1704
iff	-1705
wards	-1706
pend	-1707
where	-1708
▁fren	-1709
▁trees	-1710
lling	-1711
▁added	-1712
▁walked	-1713
▁camp	-1714
▁vi	-1715
iment	-1716
▁lu	-1717
▁enem	-1718
▁hall	-1719
ounded	-1720
inary	-1721
▁deal	-1722
▁plain	-1723
▁happened	-1724
gy	-1725
ement	-1726
▁purpose	-1727
the	-1728
ues	-1729
▁hat	-1730
▁ones	-1731
▁government	-1732
▁pict	-1733
▁build	-1734
oint	-1735
▁laid	-1736
▁tal	-1737
oof	-1738
ming	-1739
▁try	-1740
▁opin	-1741
▁desc	-1742
▁thirty	-1743
▁bell	-1744
▁stren	-1745
▁late	-1746
▁circum	-1747
▁natural	-1748
ening	-1749
▁main	-1750
▁top	-1751
▁desp	-1752
wh	-1753
▁whis	-1754
cient	-1755
bs	-1756
▁fle	-1757
ented	-1758
▁plan	-1759
▁force	-1760
▁fing	-1761
▁attention	-1762
▁necessary	-1763
▁cra	-1764
▁rev	-1765
▁heavy	-1766
form	-1767
▁class	-1768
▁infl	-1769
iter	-1770
▁hors	-1771
▁caught	-1772
▁knight	-1773
▁chap	-1774
▁deter	-1775
▁england	-1776
mon	-1777
ored	-1778
ically	-1779
▁north	-1780
▁mans	-1781
▁av	-1782
hood	-1783
▁terri	-1784
▁forest	-1785
ior	-1786
▁auth	-1787
▁chance	-1788
raid	-1789
▁grew	-1790
▁peace	-1791
▁horses	-1792
▁silence	-1793
ustom	-1794
▁standing	-1795
▁instead	-1796
▁fifty	-1797
▁trouble	-1798
▁faith	-1799
▁french	-1800
▁den	-1801
ining	-1802
▁length	-1803
▁remain	-1804
ply	-1805
rupt	-1806
▁hop	-1807
▁prison	-1808
▁lim	-1809
icked	-1810
▁island	-1811
▁anx	-1812
▁lie	-1813
▁seeing	-1814
ius	-1815
▁determ	-1816
▁beauty	-1817
▁position	-1818
▁er	-1819
▁enc	-1820
▁attempt	-1821
▁aunt	-1822
▁south	-1823
▁shar	-1824
▁born	-1825
▁thoughts	-1826
▁army	-1827
▁afraid	-1828
▁brown	-1829
▁stopped	-1830
▁je	-1831
▁conv	-1832
ives	-1833
▁result	-1834
usion	-1835
▁conse	-1836
▁thick	-1837
sy	-1838
▁drew	-1839
▁wit	-1840
ush	-1841
▁ago	-1842
▁saint	-1843
▁treat	-1844
▁thinking	-1845
ges	-1846
▁food	-1847
▁arr	-1848
fered	-1849
▁yourself	-1850
ggest	-1851
▁priv	-1852
▁burn	-1853
▁theres	-1854
▁suggest	-1855
asp	-1856
ler	-1857
▁sister	-1858
ics	-1859
ooks	-1860
▁whate	-1861
iced	-1862
▁nar	-1863
▁enj	-1864
aged	-1865
▁rom	-1866
ceive	-1867
▁incl	-1868
▁mouth	-1869
▁following	-1870
▁eag	-1871
▁accept	-1872
▁whatever	-1873
▁ah	-1874
▁deg	-1875
▁spring	-1876
aded	-1877
iers	-1878
▁company	-1879
▁straight	-1880
▁bear	-1881
▁knowledge	-1882
▁inform	-1883
▁profess	-1884
▁third	-1885
▁hardly	-1886
▁ast	-1887
▁resol	-1888
▁scarce	-1889
▁imposs	-1890
▁exclaimed	-1891
▁hy	-1892
▁immediately	-1893
▁hig	-1894
▁rid	-1895
▁vict	-1896
itions	-1897
▁circumst	-1898
▁du	-1899
▁contr	-1900
▁wait	-1901
▁stone	-1902
▁meant	-1903
▁gentleman	-1904
▁grow	-1905
▁fat	-1906
▁rap	-1907
pping	-1908
▁mine	-1909
▁states	-1910
▁complete	-1911
ma	-1912
tained	-1913
▁loved	-1914
▁distance	-1915
▁smile	-1916
ivid	-1917
▁died	-1918
▁besides	-1919
▁pull	-1920
ences	-1921
▁inqu	-1922
▁paper	-1923
▁queen	-1924
▁filled	-1925
▁struck	-1926
▁society	-1927
▁ball	-1928
▁moon	-1929
▁jour	-1930
▁desire	-1931
ghed	-1932
isted	-1933
▁watch	-1934
▁placed	-1935
▁convers	-1936
▁makes	-1937
head	-1938
▁exact	-1939
▁broken	-1940
▁warm	-1941
▁meas	-1942
ging	-1943
▁dinner	-1944
ift	-1945
▁slight	-1946
▁difficult	-1947
amed	-1948
▁nin	-1949
▁save	-1950
▁effort	-1951
▁wide	-1952
▁author	-1953
▁slowly	-1954
▁incre	-1955
▁wrong	-1956
▁rob	-1957
▁inn	-1958
▁und	-1959
▁coun	-1960
▁compl	-1961
▁glass	-1962
▁getting	-1963
ries	-1964
▁box	-1965
▁ori	-1966
▁west	-1967
▁quickly	-1968
▁obl	-1969
▁pop	-1970
cially	-1971
▁sitting	-1972
ases	-1973
▁gun	-1974
▁conn	-1975
▁easy	-1976
▁chair	-1977
▁comes	-1978
▁polit	-1979
▁started	-1980
acy	-1981
gress	-1982
▁relig	-1983
▁impossible	-1984
▁ty	-1985
▁palace	-1986
▁remained	-1987
ified	-1988
▁snow	-1989
▁depart	-1990
▁proceed	-1991
▁post	-1992
▁belong	-1993
cho	-1994
ny	-1995
ork	-1996
val	-1997
▁gar	-1998
aching	-1999
tend	-2000
▁imm	-2001
▁crowd	-2002
▁peter	-2003
uit	-2004
ires	-2005
▁mass	-2006
▁strength	-2007
io	-2008
▁ant	-2009
▁bound	-2010
▁forgot	-2011
ively	-2012
▁nine	-2013
▁viol	-2014
▁commun	-2015
▁fright	-2016
▁single	-2017
uss	-2018
▁tears	-2019
ories	-2020
▁fool	-2021
▁aftern	-2022
▁beside	-2023
▁mid	-2024
▁maid	-2025
▁mary	-2026
▁opinion	-2027
▁fresh	-2028
▁ger	-2029
oured	-2030
▁floor	-2031
▁fix	-2032
▁laughed	-2033
▁une	-2034
▁lang	-2035
▁waiting	-2036
▁dread	-2037
▁demand	-2038
ancy	-2039
▁die	-2040
▁tone	-2041
▁concl	-2042
▁beat	-2043
▁boat	-2044
▁probably	-2045
▁doll	-2046
dom	-2047
▁hunt	-2048
▁lips	-2049
▁music	-2050
ugg	-2051
▁piece	-2052
▁action	-2053
▁coll	-2054
▁mess	-2055
▁suffic	-2056
▁mountain	-2057
▁send	-2058
▁outside	-2059
bert	-2060
▁sac	-2061
arch	-2062
▁fun	-2063
▁please	-2064
und	-2065
▁greater	-2066
gan	-2067
▁event	-2068
par	-2069
reme	-2070
▁sky	-2071
▁lift	-2072
▁sand	-2073
▁simple	-2074
▁guard	-2075
▁thank	-2076
▁youth	-2077
ope	-2078
▁gall	-2079
▁forget	-2080
▁arrived	-2081
▁gaz	-2082
▁van	-2083
▁below	-2084
▁ver	-2085
itten	-2086
▁espe	-2087
▁weak	-2088
▁duty	-2089
▁fathers	-2090
▁service	-2091
▁afternoon	-2092
▁fly	-2093
▁safe	-2094
▁recogn	-2095
▁stop	-2096
▁week	-2097
▁occup	-2098
▁mark	-2099
▁grave	-2100
▁speaking	-2101
erv	-2102
ald	-2103
▁loc	-2104
▁sav	-2105
cial	-2106
▁influ	-2107
ency	-2108
▁exh	-2109
▁battle	-2110
▁according	-2111
ech	-2112
ndon	-2113
▁path	-2114
▁shout	-2115
ises	-2116
iddle	-2117
▁fash	-2118
▁chapter	-2119
aped	-2120
urs	-2121
▁usual	-2122
▁months	-2123
▁cab	-2124
▁cho	-2125
▁giving	-2126
▁history	-2127
let	-2128
itation	-2129
▁appearance	-2130
dered	-2131
▁drink	-2132
▁mention	-2133
▁talking	-2134
son	-2135
ourage	-2136
▁remark	-2137
▁pun	-2138
▁experience	-2139
▁gro	-2140
▁showed	-2141
hered	-2142
atic	-2143
▁tur	-2144
▁shut	-2145
▁london	-2146
▁sym	-2147
▁pock	-2148
▁forty	-2149
▁repres	-2150
ital	-2151
▁grace	-2152
▁moved	-2153
▁youre	-2154
▁former	-2155
▁z	-2156
▁kings	-2157
▁expected	-2158
bar	-2159
hel	-2160
▁phys	-2161
▁corner	-2162
▁latter	-2163
ivers	-2164
▁bird	-2165
▁conscious	-2166
str	-2167
▁entirely	-2168
▁presence	-2169
▁neck	-2170
▁purs	-2171
arer	-2172
vere	-2173
▁eager	-2174
▁easily	-2175
ship	-2176
▁nation	-2177
▁couldnt	-2178
gar	-2179
orted	-2180
▁bread	-2181
▁trust	-2182
▁stream	-2183
▁learned	-2184
▁evil	-2185
▁sick	-2186
▁langu	-2187
▁clothes	-2188
▁shore	-2189
▁especially	-2190
▁pet	-2191
▁bank	-2192
▁scarcely	-2193
▁books	-2194
uel	-2195
onel	-2196
oom	-2197
▁spec	-2198
▁spot	-2199
ishing	-2200
▁knows	-2201
▁wished	-2202
▁consequ	-2203
▁fashion	-2204
▁enjoy	-2205
▁fut	-2206
▁breath	-2207
olog	-2208
▁neg	-2209
ushed	-2210
▁anne	-2211
▁situ	-2212
▁winter	-2213
▁merely	-2214
▁covered	-2215
ature	-2216
▁oper	-2217
wise	-2218
▁killed	-2219
▁ladies	-2220
▁persons	-2221
▁wise	-2222
tended	-2223
ram	-2224
▁twel	-2225
▁figure	-2226
▁married	-2227
velop	-2228
▁twelve	-2229
▁leaving	-2230
▁turning	-2231
▁happiness	-2232
▁beginning	-2233
ouses	-2234
▁origin	-2235
▁tender	-2236
▁star	-2237
▁office	-2238
▁condition	-2239
▁expression	-2240
▁sit	-2241
▁jack	-2242
▁subst	-2243
▁train	-2244
▁morrow	-2245
▁raised	-2246
fer	-2247
▁fal	-2248
ipped	-2249
▁rapid	-2250
▁changed	-2251
▁kill	-2252
oop	-2253
▁closed	-2254
▁direction	-2255
yal	-2256
mit	-2257
▁individ	-2258
ee	-2259
aled	-2260
▁running	-2261
mn	-2262
kes	-2263
rief	-2264
▁places	-2265
▁ban	-2266
▁cou	-2267
▁suc	-2268
▁finally	-2269
▁pleasant	-2270
▁liber	-2271
▁wonderful	-2272
▁conversation	-2273
▁geor	-2274
▁board	-2275
▁fortune	-2276
▁game	-2277
▁magn	-2278
llig	-2279
▁tast	-2280
▁allowed	-2281
▁flowers	-2282
ulty	-2283
▁bott	-2284
pic	-2285
osing	-2286
ounds	-2287
▁terrible	-2288
▁virt	-2289
idered	-2290
jo	-2291
come	-2292
itch	-2293
▁iron	-2294
▁silent	-2295
ests	-2296
well	-2297
pered	-2298
▁gods	-2299
▁guess	-2300
▁simply	-2301
▁conduct	-2302
ibly	-2303
▁civ	-2304
▁understood	-2305
▁pra	-2306
▁tail	-2307
▁oblig	-2308
▁golden	-2309
▁trying	-2310
bered	-2311
▁arg	-2312
▁becom	-2313
▁decided	-2314
▁individual	-2315
▁vall	-2316
▁enter	-2317
▁escape	-2318
ument	-2319
uted	-2320
▁vol	-2321
▁animals	-2322
▁important	-2323
▁dam	-2324
▁sla	-2325
▁shot	-2326
ours	-2327
ples	-2328
▁prevent	-2329
▁succeed	-2330
▁tall	-2331
uous	-2332
▁clim	-2333
▁admir	-2334
▁butter	-2335
▁instant	-2336
ript	-2337
olute	-2338
▁isnt	-2339
▁sole	-2340
▁ben	-2341
▁tea	-2342
iding	-2343
▁minute	-2344
▁social	-2345
eness	-2346
▁fish	-2347
▁reach	-2348
▁afterwards	-2349
light	-2350
▁blind	-2351
▁observed	-2352
inite	-2353
▁legs	-2354
▁stir	-2355
▁broad	-2356
cell	-2357
▁mir	-2358
▁marg	-2359
▁utter	-2360
▁beast	-2361
▁trave	-2362
▁journey	-2363
▁wouldnt	-2364
zz	-2365
ruct	-2366
▁cand	-2367
▁lives	-2368
▁connect	-2369
▁circumstances	-2370
fast	-2371
▁unless	-2372
▁surprise	-2373
▁furn	-2374
isters	-2375
osp	-2376
semb	-2377
▁thor	-2378
▁occur	-2379
▁empl	-2380
cience	-2381
▁sword	-2382
▁existence	-2383
ax	-2384
inc	-2385
ume	-2386
▁write	-2387
▁pot	-2388
▁sail	-2389
▁wand	-2390
▁separ	-2391
▁concer	-2392
▁deser	-2393
▁silver	-2394
▁flat	-2395
▁resp	-2396
▁estab	-2397
ference	-2398
▁rain	-2399
▁steps	-2400
unk	-2401
▁prev	-2402
▁written	-2403
▁broke	-2404
sh	-2405
▁lam	-2406
▁ideas	-2407
▁sharp	-2408
▁american	-2409
▁perfectly	-2410
▁jew	-2411
erial	-2412
▁frequ	-2413
▁strugg	-2414
▁stick	-2415
▁walls	-2416
▁opport	-2417
▁sett	-2418
▁shook	-2419
▁intellig	-2420
▁pale	-2421
▁ancient	-2422
enth	-2423
ission	-2424
▁threw	-2425
▁bitter	-2426
▁narrow	-2427
▁absolute	-2428
oses	-2429
▁ign	-2430
het	-2431
▁por	-2432
▁major	-2433
▁houses	-2434
ell	-2435
▁dim	-2436
▁mut	-2437
▁spread	-2438
▁impress	-2439
▁repeated	-2440
▁mas	-2441
▁ears	-2442
▁speech	-2443
▁temper	-2444
oved	-2445
▁don	-2446
▁rub	-2447
▁lean	-2448
▁custom	-2449
▁middle	-2450
▁discovered	-2451
▁firm	-2452
▁assist	-2453
▁beneath	-2454
▁property	-2455
ec	-2456
roy	-2457
rodu	-2458
▁ves	-2459
▁delic	-2460
▁grass	-2461
▁lying	-2462
▁revol	-2463
▁learn	-2464
▁youll	-2465
▁birds	-2466
▁elect	-2467
▁reply	-2468
▁future	-2469
▁develop	-2470
▁cup	-2471
▁yellow	-2472
rect	-2473
▁lou	-2474
▁motion	-2475
zen	-2476
▁spite	-2477
▁passing	-2478
ina	-2479
▁earn	-2480
▁madame	-2481
▁opportun	-2482
que	-2483
lend	-2484
umed	-2485
▁fit	-2486
acked	-2487
▁famil	-2488
▁habit	-2489
▁shadow	-2490
▁dar	-2491
▁san	-2492
clock	-2493
▁pros	-2494
▁heads	-2495
▁dropped	-2496
▁considered	-2497
iod	-2498
▁dom	-2499
▁marry	-2500
▁attack	-2501
▁oclock	-2502
ision	-2503
▁race	-2504
▁bottom	-2505
▁fer	-2506
ables	-2507
▁built	-2508
▁moder	-2509
▁protect	-2510
▁various	-2511
idden	-2512
▁civil	-2513
▁kiss	-2514
▁employ	-2515
▁excell	-2516
▁darkness	-2517
itc	-2518
ator	-2519
▁disappe	-2520
▁ur	-2521
▁calm	-2522
▁extra	-2523
▁believed	-2524
▁presently	-2525
ays	-2526
▁note	-2527
▁press	-2528
▁advant	-2529
▁mach	-2530
▁ring	-2531
anging	-2532
ishment	-2533
▁marriage	-2534
▁determined	-2535
▁conce	-2536
▁cover	-2537
▁parts	-2538
▁exactly	-2539
▁bag	-2540
▁grou	-2541
▁pick	-2542
retched	-2543
▁health	-2544
▁perform	-2545
▁ven	-2546
▁empt	-2547
▁host	-2548
▁listen	-2549
▁intellect	-2550
▁president	-2551
▁bow	-2552
▁egg	-2553
itary	-2554
▁paid	-2555
▁surf	-2556
▁leaves	-2557
▁period	-2558
▁dressed	-2559
▁influence	-2560
pan	-2561
▁bod	-2562
▁inj	-2563
anted	-2564
under	-2565
▁harm	-2566
▁seat	-2567
▁animal	-2568
▁pleased	-2569
ayed	-2570
what	-2571
▁ine	-2572
▁suit	-2573
▁enemy	-2574
▁apart	-2575
▁constit	-2576
▁somewhat	-2577
ral	-2578
▁ham	-2579
▁mal	-2580
▁letters	-2581
▁loud	-2582
▁allow	-2583
▁storm	-2584
▁describ	-2585
▁fifteen	-2586
▁baby	-2587
▁lake	-2588
▁song	-2589
erable	-2590
tering	-2591
▁wrote	-2592
▁soldiers	-2593
▁fol	-2594
▁mort	-2595
▁contro	-2596
▁formed	-2597
▁sorrow	-2598
▁greatest	-2599
▁mountains	-2600
uded	-2601
▁defe	-2602
▁ways	-2603
▁drawn	-2604
▁impro	-2605
hers	-2606
▁jul	-2607
▁agre	-2608
▁disg	-2609
▁cost	-2610
action	-2611
▁mel	-2612
▁vent	-2613
▁east	-2614
▁aston	-2615
▁cheer	-2616
▁royal	-2617
▁united	-2618
▁apparent	-2619
▁creature	-2620
▁remembered	-2621
ites	-2622
▁dry	-2623
▁likely	-2624
▁summer	-2625
▁surely	-2626
▁gate	-2627
▁laws	-2628
▁castle	-2629
▁village	-2630
▁william	-2631
lls	-2632
▁cham	-2633
▁educ	-2634
▁wealth	-2635
▁lot	-2636
▁touch	-2637
▁passion	-2638
▁declared	-2639
ingu	-2640
▁wed	-2641
▁spent	-2642
▁weather	-2643
▁comb	-2644
▁space	-2645
▁german	-2646
rer	-2647
▁exer	-2648
▁meth	-2649
▁grown	-2650
▁lower	-2651
▁advent	-2652
▁degree	-2653
▁notice	-2654
▁vessel	-2655
▁carefully	-2656
iety	-2657
▁tired	-2658
▁valley	-2659
▁brothers	-2660
ague	-2661
▁cous	-2662
▁hero	-2663
iction	-2664
▁scene	-2665
▁pocket	-2666
ocr	-2667
▁stro	-2668
ration	-2669
▁noble	-2670
▁honest	-2671
▁drawing	-2672
▁greatly	-2673
▁promise	-2674
▁personal	-2675
▁difficulty	-2676
af	-2677
▁mod	-2678
idently	-2679
▁splend	-2680
arily	-2681
▁farm	-2682
▁agree	-2683
▁favor	-2684
▁extreme	-2685
▁breakfast	-2686
cise	-2687
▁brid	-2688
▁nice	-2689
▁faint	-2690
▁judge	-2691
▁colonel	-2692
rel	-2693
oted	-2694
▁pure	-2695
▁speed	-2696
▁smiled	-2697
▁clean	-2698
pet	-2699
wood	-2700
▁gray	-2701
ancing	-2702
▁holding	-2703
▁york	-2704
▁bless	-2705
▁fixed	-2706
▁jim	-2707
osite	-2708
▁dick	-2709
▁fail	-2710
▁serve	-2711
▁sorry	-2712
ipp	-2713
▁jer	-2714
▁worse	-2715
oose	-2716
▁bal	-2717
▁tong	-2718
iently	-2719
▁finished	-2720
▁everybody	-2721
▁capt	-2722
▁chee	-2723
▁thin	-2724
▁desce	-2725
▁equal	-2726
▁remar	-2727
▁collect	-2728
▁moments	-2729
▁watched	-2730
iny	-2731
▁alto	-2732
▁goes	-2733
▁knowing	-2734
▁hell	-2735
▁fingers	-2736
▁picture	-2737
▁ourselves	-2738
▁altogether	-2739
ring	-2740
▁pan	-2741
▁meaning	-2742
▁material	-2743
aret	-2744
gged	-2745
▁jane	-2746
▁wel	-2747
▁henry	-2748
▁woods	-2749
ilar	-2750
▁wond	-2751
▁situation	-2752
aked	-2753
▁cook	-2754
▁honor	-2755
▁nobody	-2756
stem	-2757
osity	-2758
▁rail	-2759
▁introdu	-2760
▁noticed	-2761
▁stranger	-2762
▁mix	-2763
▁thro	-2764
▁burst	-2765
bers	-2766
hest	-2767
▁inh	-2768
▁surr	-2769
▁imper	-2770
▁france	-2771
▁surface	-2772
ium	-2773
▁symp	-2774
▁courage	-2775
▁distinct	-2776
▁opposite	-2777
▁looks	-2778
▁shape	-2779
▁forgotten	-2780
▁sen	-2781
▁eliz	-2782
ding	-2783
nown	-2784
▁cit	-2785
▁eur	-2786
▁unk	-2787
▁troub	-2788
▁season	-2789
▁system	-2790
▁confess	-2791
▁distingu	-2792
bur	-2793
nday	-2794
▁grat	-2795
▁trib	-2796
▁waited	-2797
▁ice	-2798
▁fallen	-2799
▁anxious	-2800
▁walking	-2801
ested	-2802
▁exec	-2803
▁luck	-2804
▁mont	-2805
▁vast	-2806
itive	-2807
▁vain	-2808
▁pi	-2809
▁edge	-2810
▁noise	-2811
▁reflect	-2812
▁feelings	-2813
acing	-2814
▁store	-2815
my	-2816
oned	-2817
▁aut	-2818
▁ange	-2819
▁lose	-2820
▁pecul	-2821
▁wasnt	-2822
athered	-2823
▁destroy	-2824
▁quarter	-2825
uly	-2826
▁cy	-2827
▁avo	-2828
ashed	-2829
▁dism	-2830
▁appre	-2831
▁swift	-2832
▁obliged	-2833
▁touched	-2834
▁carriage	-2835
▁peculiar	-2836
bb	-2837
osop	-2838
▁serious	-2839
▁generally	-2840
key	-2841
ners	-2842
▁shr	-2843
▁bare	-2844
▁heat	-2845
▁mart	-2846
▁hills	-2847
▁ordinary	-2848
▁sufficient	-2849
uls	-2850
iant	-2851
▁lines	-2852
▁pieces	-2853
▁opportunity	-2854
aly	-2855
▁dart	-2856
▁grad	-2857
▁paris	-2858
▁building	-2859
▁eld	-2860
▁finding	-2861
▁private	-2862
▁usually	-2863
▁fond	-2864
pected	-2865
ental	-2866
▁coat	-2867
▁fill	-2868
▁wear	-2869
▁sides	-2870
▁evidently	-2871
eds	-2872
▁angry	-2873
▁ships	-2874
▁inside	-2875
▁language	-2876
▁prepared	-2877
▁surprised	-2878
▁whispered	-2879
▁offered	-2880
▁accompan	-2881
na	-2882
▁due	-2883
▁loss	-2884
▁poet	-2885
▁false	-2886
▁proud	-2887
▁taste	-2888
▁dollars	-2889
▁shop	-2890
▁glance	-2891
▁higher	-2892
▁regular	-2893
▁shoulder	-2894
▁rise	-2895
itated	-2896
▁europe	-2897
▁mothers	-2898
▁philosop	-2899
▁amb	-2900
▁rul	-2901
▁scr	-2902
ointed	-2903
▁reading	-2904
isc	-2905
▁ess	-2906
imate	-2907
▁earnest	-2908
▁kingdom	-2909
▁supposed	-2910
lished	-2911
▁george	-2912
hens	-2913
otion	-2914
▁fier	-2915
▁depend	-2916
uses	-2917
▁mam	-2918
▁value	-2919
▁accompl	-2920
▁gentlemen	-2921
▁freed	-2922
▁univers	-2923
▁parl	-2924
ounced	-2925
▁empty	-2926
▁liked	-2927
▁charge	-2928
▁questions	-2929
enced	-2930
▁murm	-2931
▁sake	-2932
▁honour	-2933
▁quietly	-2934
▁windows	-2935
▁bas	-2936
▁ris	-2937
▁hide	-2938
▁pride	-2939
▁discuss	-2940
▁christian	-2941
▁companion	-2942
▁represent	-2943
ob	-2944
ias	-2945
▁affection	-2946
nes	-2947
▁gh	-2948
▁kne	-2949
▁arch	-2950
▁dare	-2951
▁weeks	-2952
▁caused	-2953
▁difference	-2954
che	-2955
rid	-2956
cing	-2957
like	-2958
▁bent	-2959
▁alive	-2960
▁offer	-2961
▁matters	-2962
▁opening	-2963
▁process	-2964
▁servant	-2965
▁settled	-2966
▁seventeen	-2967
ude	-2968
▁alar	-2969
▁band	-2970
▁cruel	-2971
▁ordered	-2972
▁perm	-2973
vation	-2974
▁treas	-2975
▁measure	-2976
▁handsome	-2977
cil	-2978
▁que	-2979
▁bull	-2980
▁kitc	-2981
▁nose	-2982
▁cloud	-2983
▁fortun	-2984
▁spoken	-2985
▁growing	-2986
▁interrupt	-2987
aff	-2988
▁cow	-2989
icated	-2990
▁brave	-2991
▁faces	-2992
▁thrown	-2993
▁america	-2994
▁shoulders	-2995
▁sixty	-2996
▁whats	-2997
▁square	-2998
▁attract	-2999
go	-3000
▁dav	-3001
▁hol	-3002
▁diam	-3003
▁dust	-3004
▁fate	-3005
▁color	-3006
ibility	-3007
▁special	-3008
▁contrary	-3009
for	-3010
▁instance	-3011
arest	-3012
▁skin	-3013
▁tremb	-3014
▁proved	-3015
▁gathered	-3016
▁bold	-3017
▁cott	-3018
▁organ	-3019
▁distur	-3020
▁lifted	-3021
▁justice	-3022
▁similar	-3023
▁forced	-3024
▁memory	-3025
▁threat	-3026
▁streets	-3027
▁promised	-3028
uce	-3029
ades	-3030
▁listened	-3031
▁authority	-3032
▁unh	-3033
▁rode	-3034
▁youve	-3035
ify	-3036
ergy	-3037
▁jump	-3038
▁reve	-3039
fortun	-3040
ulation	-3041
▁happen	-3042
▁indian	-3043
▁suffer	-3044
▁curious	-3045
ips	-3046
leep	-3047
mond	-3048
over	-3049
▁seek	-3050
▁companions	-3051
irt	-3052
soci	-3053
▁hence	-3054
▁asleep	-3055
▁breast	-3056
▁receive	-3057
▁watching	-3058
how	-3059
▁rejo	-3060
▁wine	-3061
▁fancy	-3062
▁worked	-3063
▁chamber	-3064
sc	-3065
ails	-3066
ruction	-3067
▁height	-3068
▁seized	-3069
raph	-3070
▁ali	-3071
▁hurt	-3072
▁frank	-3073
▁ignor	-3074
▁imagine	-3075
▁kitchen	-3076
▁liberty	-3077
▁servants	-3078
▁blow	-3079
▁reck	-3080
▁prove	-3081
▁stones	-3082
▁meeting	-3083
▁seventy	-3084
▁deb	-3085
▁ing	-3086
▁salt	-3087
father	-3088
▁rising	-3089
▁waters	-3090
▁officers	-3091
▁produced	-3092
▁principle	-3093
por	-3094
▁sin	-3095
▁stock	-3096
con	-3097
min	-3098
▁catch	-3099
▁rocks	-3100
▁failed	-3101
▁invent	-3102
▁affairs	-3103
▁indians	-3104
▁artic	-3105
▁orders	-3106
▁tongue	-3107
▁progress	-3108
hy	-3109
eping	-3110
▁rough	-3111
▁hearing	-3112
▁cro	-3113
▁sacri	-3114
▁steam	-3115
▁doesnt	-3116
▁putting	-3117
▁support	-3118
antic	-3119
▁crown	-3120
▁study	-3121
▁hom	-3122
usted	-3123
▁coast	-3124
▁emper	-3125
▁moral	-3126
▁talked	-3127
▁directly	-3128
▁possession	-3129
ille	-3130
▁brit	-3131
▁ende	-3132
▁pier	-3133
▁plat	-3134
▁cases	-3135
▁unknown	-3136
▁wid	-3137
▁pack	-3138
▁rate	-3139
▁works	-3140
▁associ	-3141
▁writing	-3142
▁satisfied	-3143
▁hurry	-3144
ization	-3145
▁sisters	-3146
▁religion	-3147
▁ow	-3148
▁unf	-3149
▁bask	-3150
▁roof	-3151
▁aware	-3152
▁innoc	-3153
▁persu	-3154
▁engaged	-3155
▁explain	-3156
▁political	-3157
ky	-3158
ids	-3159
▁ly	-3160
road	-3161
▁span	-3162
▁aside	-3163
▁citiz	-3164
▁merch	-3165
▁moving	-3166
▁record	-3167
▁telling	-3168
▁witness	-3169
zy	-3170
illa	-3171
▁pit	-3172
▁test	-3173
itable	-3174
▁magic	-3175
▁named	-3176
▁yours	-3177
▁played	-3178
▁discover	-3179
▁jes	-3180
▁month	-3181
▁example	-3182
▁species	-3183
▁sympath	-3184
▁working	-3185
vey	-3186
iles	-3187
▁mighty	-3188
▁falling	-3189
▁advantage	-3190
▁interesting	-3191
▁labor	-3192
▁ninet	-3193
▁amount	-3194
▁hurried	-3195
▁laughing	-3196
▁possessed	-3197
▁entr	-3198
▁grey	-3199
▁doors	-3200
▁fault	-3201
▁inhab	-3202
▁twice	-3203
▁agreed	-3204
▁nearer	-3205
▁pulled	-3206
ron	-3207
onsie	-3208
▁pity	-3209
▁forms	-3210
▁content	-3211
mas	-3212
▁hearts	-3213
▁arrange	-3214
▁carrying	-3215
oms	-3216
▁ble	-3217
▁dign	-3218
▁group	-3219
▁supper	-3220
▁suspic	-3221
▁movement	-3222
ocked	-3223
▁dogs	-3224
▁bodies	-3225
▁majest	-3226
▁pointed	-3227
▁required	-3228
▁hyp	-3229
▁fart	-3230
▁names	-3231
▁spect	-3232
▁flower	-3233
▁mistress	-3234
▁thorough	-3235
▁excellent	-3236
▁ep	-3237
▁takes	-3238
▁needed	-3239
▁solemn	-3240
▁frightened	-3241
unch	-3242
▁unw	-3243
▁busy	-3244
▁flour	-3245
▁march	-3246
▁terms	-3247
▁cousin	-3248
▁tit	-3249
▁terror	-3250
▁foreign	-3251
▁aug	-3252
▁memb	-3253
▁stars	-3254
▁design	-3255
▁parent	-3256
▁search	-3257
ulf	-3258
▁dur	-3259
▁vig	-3260
▁drive	-3261
▁endeav	-3262
▁milk	-3263
▁preser	-3264
▁sought	-3265
▁distant	-3266
reg	-3267
rem	-3268
▁ale	-3269
▁huge	-3270
pap	-3271
set	-3272
▁der	-3273
aries	-3274
▁upper	-3275
▁wants	-3276
▁lovely	-3277
▁despair	-3278
▁keeping	-3279
▁station	-3280
ese	-3281
▁sam	-3282
ortion	-3283
▁fruit	-3284
▁events	-3285
nds	-3286
eder	-3287
▁log	-3288
▁clou	-3289
▁mult	-3290
▁peas	-3291
ception	-3292
▁interp	-3293
▁stairs	-3294
▁remarked	-3295
▁instantly	-3296
asc	-3297
▁di	-3298
▁buy	-3299
▁curi	-3300
▁eighty	-3301
▁fields	-3302
▁century	-3303
▁passage	-3304
▁evidence	-3305
▁succeeded	-3306
dle	-3307
▁emb	-3308
▁rooms	-3309
▁shame	-3310
▁favour	-3311
▁smiling	-3312
▁intended	-3313
▁splendid	-3314
▁naturally	-3315
esh	-3316
▁unto	-3317
iments	-3318
▁shown	-3319
▁afford	-3320
▁served	-3321
▁explained	-3322
▁flew	-3323
▁claim	-3324
▁gloom	-3325
▁shoot	-3326
▁yield	-3327
▁attend	-3328
▁freedom	-3329
▁hunting	-3330
▁margaret	-3331
▁confidence	-3332
ture	-3333
ulous	-3334
▁crit	-3335
▁mile	-3336
▁sheep	-3337
▁weight	-3338
▁aud	-3339
▁rad	-3340
▁displ	-3341
▁myster	-3342
▁otherwise	-3343
lv	-3344
lin	-3345
▁hed	-3346
▁cool	-3347
▁pair	-3348
▁franc	-3349
▁smoke	-3350
▁seated	-3351
▁virgin	-3352
▁clearly	-3353
▁powerful	-3354
umn	-3355
▁earl	-3356
▁wore	-3357
▁instr	-3358
▁union	-3359
▁prefer	-3360
▁calling	-3361
▁counten	-3362
hold	-3363
rose	-3364
▁diss	-3365
▁cabin	-3366
▁contain	-3367
▁control	-3368
▁diamond	-3369
▁instinct	-3370
hus	-3371
erous	-3372
using	-3373
▁club	-3374
▁liter	-3375
▁finger	-3376
▁spirits	-3377
▁welcome	-3378
hem	-3379
vert	-3380
▁uns	-3381
▁rare	-3382
attered	-3383
▁completely	-3384
▁particularly	-3385
▁ber	-3386
▁pin	-3387
▁pill	-3388
▁occurred	-3389
▁professor	-3390
▁relations	-3391
▁cult	-3392
▁advice	-3393
▁superior	-3394
▁emp	-3395
▁amaz	-3396
▁awful	-3397
▁trium	-3398
▁gently	-3399
▁masters	-3400
▁members	-3401
▁disappeared	-3402
▁env	-3403
▁duke	-3404
▁size	-3405
▁daily	-3406
▁sixteen	-3407
▁familiar	-3408
▁entertain	-3409
race	-3410
▁rag	-3411
ishop	-3412
▁bore	-3413
▁possibly	-3414
▁dangerous	-3415
▁importance	-3416
▁wag	-3417
▁gree	-3418
▁papa	-3419
▁minds	-3420
▁leading	-3421
▁demanded	-3422
▁education	-3423
▁conditions	-3424
▁considerable	-3425
ole	-3426
▁eggs	-3427
angers	-3428
▁excit	-3429
▁horror	-3430
▁equally	-3431
▁triumph	-3432
▁advanced	-3433
▁resolved	-3434
▁curiosity	-3435
ams	-3436
ora	-3437
abel	-3438
▁iss	-3439
▁oce	-3440
▁sour	-3441
▁exped	-3442
▁trade	-3443
▁joined	-3444
▁pictures	-3445
▁mentioned	-3446
▁necessity	-3447
▁suf	-3448
▁pard	-3449
▁rule	-3450
▁proof	-3451
▁throw	-3452
theless	-3453
▁elizab	-3454
▁travel	-3455
▁yester	-3456
▁address	-3457
▁nevertheless	-3458
kin	-3459
ival	-3460
▁fet	-3461
▁drove	-3462
▁fully	-3463
▁slave	-3464
▁behold	-3465
▁voices	-3466
▁yesterday	-3467
ading	-3468
▁aband	-3469
▁powers	-3470
▁cottage	-3471
▁farther	-3472
▁elizabeth	-3473
▁frequently	-3474
▁buck	-3475
▁drag	-3476
▁qual	-3477
▁shes	-3478
▁havent	-3479
▁slaves	-3480
▁whenever	-3481
▁constitution	-3482
acle	-3483
ette	-3484
istic	-3485
▁meat	-3486
▁birth	-3487
▁unhapp	-3488
▁extraord	-3489
▁creatures	-3490
▁cop	-3491
▁gle	-3492
ators	-3493
▁tele	-3494
ainted	-3495
lessly	-3496
▁brill	-3497
▁goods	-3498
▁hither	-3499
▁modern	-3500
▁sunday	-3501
▁actually	-3502
▁suggested	-3503
▁excitement	-3504
▁grandfather	-3505
▁key	-3506
▁lod	-3507
▁rat	-3508
▁wes	-3509
alous	-3510
▁hosp	-3511
▁trail	-3512
▁fourth	-3513
▁gather	-3514
▁paused	-3515
▁acquaint	-3516
▁occupied	-3517
▁absolutely	-3518
▁apparently	-3519
▁remarkable	-3520
▁bor	-3521
▁appl	-3522
ability	-3523
▁couple	-3524
▁double	-3525
▁wicked	-3526
▁excited	-3527
▁substance	-3528
acks	-3529
bing	-3530
▁hath	-3531
▁lies	-3532
▁chest	-3533
▁flesh	-3534
▁softly	-3535
▁singing	-3536
▁soldier	-3537
▁interested	-3538
▁yo	-3539
▁oak	-3540
▁pos	-3541
acher	-3542
asons	-3543
▁dozen	-3544
▁gives	-3545
▁indust	-3546
▁perceived	-3547
▁information	-3548
rit	-3549
ford	-3550
gers	-3551
iest	-3552
chief	-3553
night	-3554
▁task	-3555
▁knees	-3556
▁belief	-3557
▁undert	-3558
▁dreadful	-3559
▁imagination	-3560
ik	-3561
▁dawn	-3562
▁obst	-3563
▁driven	-3564
▁exceed	-3565
▁report	-3566
▁anybody	-3567
▁shining	-3568
▁independ	-3569
▁aid	-3570
achel	-3571
▁dull	-3572
▁fold	-3573
ternal	-3574
▁presented	-3575
▁sex	-3576
▁card	-3577
▁enthus	-3578
▁worthy	-3579
▁newspap	-3580
▁dish	-3581
uments	-3582
▁brand	-3583
▁conqu	-3584
▁stead	-3585
▁temple	-3586
▁wounded	-3587
▁neighbour	-3588
▁countenance	-3589
oes	-3590
▁fis	-3591
ighed	-3592
▁basket	-3593
▁papers	-3594
▁cord	-3595
▁holy	-3596
▁arose	-3597
▁taught	-3598
gment	-3599
▁aint	-3600
▁gain	-3601
▁grant	-3602
▁hoped	-3603
▁ceased	-3604
▁flight	-3605
▁hidden	-3606
▁pounds	-3607
▁delighted	-3608
▁hole	-3609
▁worn	-3610
orious	-3611
▁share	-3612
▁teeth	-3613
▁affair	-3614
▁edward	-3615
▁regret	-3616
▁capital	-3617
▁science	-3618
▁regarded	-3619
ker	-3620
▁ros	-3621
asing	-3622
▁colle	-3623
▁compe	-3624
▁distr	-3625
▁clouds	-3626
▁sprang	-3627
▁fighting	-3628
rant	-3629
with	-3630
▁bee	-3631
acity	-3632
▁shel	-3633
ication	-3634
▁picked	-3635
▁refused	-3636
ification	-3637
aches	-3638
▁cart	-3639
▁mead	-3640
▁obey	-3641
▁infinite	-3642
▁consciousness	-3643
ife	-3644
nam	-3645
iance	-3646
acious	-3647
atures	-3648
▁billy	-3649
▁divine	-3650
▁explan	-3651
▁points	-3652
▁relief	-3653
▁wishes	-3654
▁message	-3655
▁objects	-3656
▁satisfaction	-3657
▁ol	-3658
mans	-3659
▁bay	-3660
▁saf	-3661
▁ride	-3662
ndered	-3663
▁facts	-3664
▁virtue	-3665
▁unfortun	-3666
▁approached	-3667
▁everywhere	-3668
resp	-3669
▁myst	-3670
▁redu	-3671
▁stup	-3672
▁dance	-3673
▁indif	-3674
▁interv	-3675
▁capable	-3676
▁washing	-3677
▁proceeded	-3678
agn	-3679
den	-3680
kins	-3681
▁ren	-3682
▁meal	-3683
▁midst	-3684
▁stuff	-3685
▁fellows	-3686
▁magnific	-3687
▁park	-3688
▁plant	-3689
▁august	-3690
▁clever	-3691
▁dreams	-3692
▁expressed	-3693
now	-3694
▁bew	-3695
▁fox	-3696
▁tot	-3697
iable	-3698
▁cred	-3699
▁emperor	-3700
▁highest	-3701
▁princip	-3702
▁willing	-3703
iot	-3704
▁fac	-3705
aming	-3706
while	-3707
▁rebe	-3708
▁admit	-3709
▁waves	-3710
▁desper	-3711
▁flying	-3712
▁smooth	-3713
▁absence	-3714
▁enemies	-3715
▁officer	-3716
com	-3717
▁od	-3718
inal	-3719
ially	-3720
stand	-3721
▁betr	-3722
▁brief	-3723
▁exhib	-3724
▁sooner	-3725
▁rapidly	-3726
▁nineteen	-3727
▁physical	-3728
▁increased	-3729
▁extraordinary	-3730
▁brain	-3731
▁becomes	-3732
▁mistake	-3733
▁removed	-3734
▁moreover	-3735
rop	-3736
astic	-3737
▁begun	-3738
▁glory	-3739
▁ocean	-3740
▁famous	-3741
▁larger	-3742
▁crossed	-3743
ater	-3744
▁nob	-3745
▁cats	-3746
▁drop	-3747
anches	-3748
▁nights	-3749
▁resist	-3750
ara	-3751
arsh	-3752
▁forb	-3753
▁grief	-3754
▁image	-3755
▁tempt	-3756
▁method	-3757
▁sounds	-3758
▁shouted	-3759
▁cher	-3760
▁paul	-3761
▁sell	-3762
▁thom	-3763
▁wings	-3764
▁eleven	-3765
▁plenty	-3766
▁closely	-3767
▁retreat	-3768
▁accepted	-3769
▁adventure	-3770
iber	-3771
▁odd	-3772
▁nodd	-3773
▁shell	-3774
▁tight	-3775
▁helped	-3776
▁neighbor	-3777
oops	-3778
▁fan	-3779
asped	-3780
▁sout	-3781
▁loose	-3782
▁stiff	-3783
▁anyone	-3784
▁choice	-3785
▁foolish	-3786
▁meanwhile	-3787
rig	-3788
▁coo	-3789
▁dun	-3790
▁hate	-3791
▁sigh	-3792
▁sons	-3793
▁ahead	-3794
▁ghost	-3795
▁wound	-3796
▁asking	-3797
▁popular	-3798
▁pressed	-3799
rees	-3800
▁sty	-3801
▁fled	-3802
▁seld	-3803
▁advance	-3804
▁correct	-3805
▁desired	-3806
▁inhabit	-3807
▁intelligence	-3808
▁fem	-3809
▁rab	-3810
▁wet	-3811
anges	-3812
▁comr	-3813
▁trad	-3814
▁skill	-3815
▁stage	-3816
▁truly	-3817
▁lights	-3818
▁evident	-3819
▁entrance	-3820
▁military	-3821
orth	-3822
▁drift	-3823
▁saved	-3824
▁monsie	-3825
▁recall	-3826
▁rushed	-3827
▁severe	-3828
▁thanks	-3829
▁stepped	-3830
▁relation	-3831
▁suffered	-3832
▁suffering	-3833
▁ox	-3834
▁ug	-3835
cles	-3836
iring	-3837
▁impat	-3838
▁jesus	-3839
▁seldom	-3840
▁monsieur	-3841
▁sympathy	-3842
icks	-3843
▁obv	-3844
▁deck	-3845
▁rank	-3846
▁shed	-3847
ensive	-3848
ivered	-3849
▁anger	-3850
▁hadnt	-3851
▁forces	-3852
▁marked	-3853
▁secure	-3854
▁efforts	-3855
▁gradually	-3856
▁murder	-3857
▁stories	-3858
▁constant	-3859
mend	-3860
ural	-3861
▁dig	-3862
aling	-3863
▁pardon	-3864
▁burning	-3865
▁judgment	-3866
▁national	-3867
▁religious	-3868
ols	-3869
▁pu	-3870
▁hut	-3871
▁frag	-3872
▁shoes	-3873
lection	-3874
▁playing	-3875
▁ze	-3876
▁arth	-3877
▁lets	-3878
▁crime	-3879
▁polly	-3880
▁restr	-3881
▁bought	-3882
▁victory	-3883
▁precious	-3884
▁throughout	-3885
lo	-3886
urd	-3887
pher	-3888
▁keen	-3889
▁mour	-3890
▁yard	-3891
ushing	-3892
▁avoid	-3893
▁slept	-3894
▁assemb	-3895
▁fierce	-3896
▁throat	-3897
▁admitted	-3898
▁prisoner	-3899
▁wondered	-3900
▁impression	-3901
ares	-3902
▁awa	-3903
▁pir	-3904
▁caut	-3905
▁rope	-3906
▁russ	-3907
▁sang	-3908
▁invol	-3909
▁bishop	-3910
▁contem	-3911
▁thrust	-3912
▁wholly	-3913
▁accordingly	-3914
iana	-3915
▁ack	-3916
▁type	-3917
▁unex	-3918
▁savage	-3919
▁useful	-3920
▁original	-3921
▁christmas	-3922
▁recollect	-3923
orous	-3924
▁cliff	-3925
ription	-3926
▁buried	-3927
▁experi	-3928
▁constantly	-3929
▁dw	-3930
▁ara	-3931
izing	-3932
▁worst	-3933
▁acknow	-3934
▁safety	-3935
aughters	-3936
▁branches	-3937
▁informed	-3938
▁established	-3939
bits	-3940
▁pour	-3941
▁dying	-3942
▁parents	-3943
▁portion	-3944
▁accident	-3945
rate	-3946
▁wra	-3947
▁emer	-3948
▁hopes	-3949
▁hotel	-3950
ustomed	-3951
▁compre	-3952
▁engage	-3953
▁supply	-3954
▁project	-3955
▁becoming	-3956
▁provided	-3957
▁devil	-3958
▁smith	-3959
▁stern	-3960
▁extent	-3961
▁whence	-3962
▁concerned	-3963
▁thoroughly	-3964
▁bot	-3965
▁adop	-3966
▁pred	-3967
▁admin	-3968
▁blank	-3969
▁roman	-3970
▁pushed	-3971
▁settle	-3972
▁dignity	-3973
▁escaped	-3974
▁plainly	-3975
ped	-3976
▁et	-3977
igned	-3978
oused	-3979
▁exha	-3980
▁waste	-3981
▁indign	-3982
▁proble	-3983
▁stupid	-3984
▁unable	-3985
▁careful	-3986
▁souther	-3987
▁delicate	-3988
ims	-3989
▁ken	-3990
▁lin	-3991
▁sylv	-3992
▁level	-3993
▁strike	-3994
ffe	-3995
llen	-3996
▁phr	-3997
▁weap	-3998
▁cities	-3999
▁fairly	-4000
▁hungry	-4001
onscious	-4002
▁arrival	-4003
▁bearing	-4004
▁thunder	-4005
▁worship	-4006
▁daughters	-4007
▁somewhere	-4008
cer	-4009
▁asc	-4010
▁nut	-4011
▁pow	-4012
▁crim	-4013
▁immense	-4014
▁jealous	-4015
▁visible	-4016
▁practice	-4017
rows	-4018
▁hun	-4019
▁alas	-4020
ulated	-4021
▁sport	-4022
▁vague	-4023
▁prompt	-4024
▁mc	-4025
illy	-4026
room	-4027
▁fro	-4028
▁alex	-4029
▁lock	-4030
▁older	-4031
▁yards	-4032
▁begged	-4033
▁instruct	-4034
aunt	-4035
ilst	-4036
▁row	-4037
▁sup	-4038
▁unus	-4039
ential	-4040
mother	-4041
utions	-4042
▁price	-4043
▁choose	-4044
▁member	-4045
▁theory	-4046
▁troops	-4047
▁amid	-4048
▁ming	-4049
▁pear	-4050
▁ended	-4051
▁james	-4052
▁kinds	-4053
▁merry	-4054
respond	-4055
▁kindly	-4056
▁inquired	-4057
▁correspond	-4058
held	-4059
▁rig	-4060
ivity	-4061
▁nerv	-4062
▁rome	-4063
▁crying	-4064
▁wooden	-4065
▁charles	-4066
▁unhappy	-4067
▁contempt	-4068
▁struggle	-4069
oln	-4070
aval	-4071
itor	-4072
▁dan	-4073
▁nay	-4074
ourse	-4075
▁grim	-4076
▁pink	-4077
▁benef	-4078
▁approach	-4079
▁prospect	-4080
▁miserable	-4081
▁proportion	-4082
cked	-4083
uing	-4084
▁max	-4085
▁prim	-4086
▁invest	-4087
▁resemb	-4088
▁scream	-4089
▁nations	-4090
▁respons	-4091
▁charming	-4092
▁friendship	-4093
▁lux	-4094
ailed	-4095
conom	-4096
▁impl	-4097
▁insp	-4098
▁jose	-4099
▁lack	-4100
▁scot	-4101
▁quant	-4102
▁recom	-4103
▁barbar	-4104
▁excuse	-4105
▁obtain	-4106
▁remind	-4107
▁assured	-4108
▁british	-4109
▁obtained	-4110
ocks	-4111
icted	-4112
▁lucy	-4113
▁flood	-4114
▁indul	-4115
▁weary	-4116
▁rolled	-4117
▁million	-4118
▁slipped	-4119
▁treated	-4120
▁uttered	-4121
▁western	-4122
▁returning	-4123
▁explanation	-4124
▁interrupted	-4125
▁distinguished	-4126
oe	-4127
▁ends	-4128
▁partly	-4129
▁stands	-4130
▁concerning	-4131
▁principles	-4132
▁comfortable	-4133
▁acquaintance	-4134
pse	-4135
chan	-4136
chie	-4137
▁sed	-4138
▁tar	-4139
▁gaze	-4140
inging	-4141
▁amuse	-4142
▁bowed	-4143
▁dared	-4144
▁manif	-4145
▁uncom	-4146
▁econom	-4147
▁ninety	-4148
▁current	-4149
▁arranged	-4150
▁mysterious	-4151
▁unconscious	-4152
▁psy	-4153
▁aven	-4154
▁crew	-4155
▁horn	-4156
▁queer	-4157
▁bridge	-4158
▁features	-4159
▁somebody	-4160
▁brilliant	-4161
▁household	-4162
▁listening	-4163
▁admiration	-4164
▁profession	-4165
aws	-4166
aker	-4167
cher	-4168
▁glim	-4169
▁tiny	-4170
▁deeply	-4171
▁manage	-4172
▁council	-4173
▁violent	-4174
▁consideration	-4175
▁understanding	-4176
ett	-4177
irm	-4178
▁mud	-4179
▁nap	-4180
ville	-4181
▁hans	-4182
▁join	-4183
▁leap	-4184
▁lone	-4185
▁mood	-4186
▁roll	-4187
atives	-4188
▁enorm	-4189
ceiving	-4190
▁lighted	-4191
▁machine	-4192
▁employed	-4193
▁kindness	-4194
▁accustomed	-4195
▁consequence	-4196
rs	-4197
ads	-4198
▁wing	-4199
▁beard	-4200
▁embar	-4201
▁feast	-4202
▁horri	-4203
▁wheel	-4204
▁fought	-4205
▁police	-4206
▁whilst	-4207
▁eagerly	-4208
▁stretched	-4209
▁hind	-4210
▁alice	-4211
▁greet	-4212
▁medic	-4213
▁melan	-4214
▁suppl	-4215
▁warri	-4216
▁winds	-4217
▁carpet	-4218
▁compar	-4219
▁hollow	-4220
▁scient	-4221
▁appears	-4222
▁patient	-4223
▁remains	-4224
▁somehow	-4225
▁intention	-4226
elt	-4227
▁joe	-4228
▁won	-4229
ashing	-4230
ograph	-4231
▁mamma	-4232
▁sugar	-4233
▁handed	-4234
▁priest	-4235
▁produce	-4236
▁citizens	-4237
▁treasure	-4238
▁trembling	-4239
▁ga	-4240
▁ate	-4241
hamed	-4242
urity	-4243
▁lamp	-4244
▁outl	-4245
▁ugly	-4246
▁knife	-4247
▁whist	-4248
▁reward	-4249
▁ashamed	-4250
▁figures	-4251
▁parliam	-4252
▁setting	-4253
▁argument	-4254
▁recognized	-4255
ha	-4256
isl	-4257
osen	-4258
▁els	-4259
▁nur	-4260
uding	-4261
▁convent	-4262
▁showing	-4263
▁exercise	-4264
▁approaching	-4265
cip	-4266
▁lev	-4267
▁ease	-4268
▁emph	-4269
isions	-4270
▁elder	-4271
▁needs	-4272
▁print	-4273
▁stared	-4274
▁bringing	-4275
fl	-4276
atory	-4277
verse	-4278
▁cloth	-4279
utation	-4280
▁detect	-4281
▁gained	-4282
▁protest	-4283
▁district	-4284
▁sensible	-4285
▁immediate	-4286
▁apr	-4287
▁voy	-4288
ology	-4289
rison	-4290
▁exch	-4291
▁lest	-4292
▁sher	-4293
▁tend	-4294
▁armed	-4295
▁inquir	-4296
▁tables	-4297
▁forgive	-4298
▁norther	-4299
▁laughter	-4300
▁described	-4301
▁thousands	-4302
▁conscience	-4303
▁feed	-4304
▁gest	-4305
▁sank	-4306
▁souls	-4307
▁spend	-4308
▁uneas	-4309
▁active	-4310
▁arthur	-4311
▁chosen	-4312
▁engine	-4313
▁illust	-4314
▁maiden	-4315
▁praise	-4316
▁theyre	-4317
▁consult	-4318
▁glanced	-4319
▁patience	-4320
▁southern	-4321
▁discovery	-4322
▁revolution	-4323
bor	-4324
▁gay	-4325
▁ton	-4326
▁knock	-4327
▁reven	-4328
▁dartagn	-4329
▁majesty	-4330
▁managed	-4331
▁require	-4332
▁friendly	-4333
▁inhabitants	-4334
ales	-4335
▁lit	-4336
choly	-4337
icate	-4338
iture	-4339
▁carol	-4340
▁joseph	-4341
▁concern	-4342
▁retired	-4343
▁governor	-4344
▁melancholy	-4345
aud	-4346
▁fee	-4347
inced	-4348
uries	-4349
▁rent	-4350
▁trot	-4351
▁youd	-4352
stairs	-4353
▁relie	-4354
▁democr	-4355
▁eating	-4356
▁legisl	-4357
▁robert	-4358
ointment	-4359
▁effects	-4360
▁increase	-4361
▁numerous	-4362
▁profound	-4363
fice	-4364
more	-4365
onstr	-4366
▁hang	-4367
▁baron	-4368
▁genius	-4369
▁native	-4370
▁hastily	-4371
▁addition	-4372
▁virginia	-4373
▁assistance	-4374
▁vic	-4375
board	-4376
stone	-4377
▁scra	-4378
▁tale	-4379
▁mercy	-4380
▁nurse	-4381
▁shock	-4382
▁feared	-4383
▁mental	-4384
▁complex	-4385
▁emotion	-4386
▁hanging	-4387
▁improve	-4388
▁useless	-4389
▁administ	-4390
▁innocent	-4391
▁interests	-4392
▁conclusion	-4393
▁ash	-4394
▁ric	-4395
▁rum	-4396
▁unp	-4397
right	-4398
▁ages	-4399
▁fare	-4400
▁rust	-4401
▁wash	-4402
▁faced	-4403
▁fairy	-4404
▁fever	-4405
▁julia	-4406
▁trist	-4407
▁absurd	-4408
▁physic	-4409
▁amongst	-4410
▁distress	-4411
isp	-4412
▁reb	-4413
▁rush	-4414
▁banks	-4415
▁novel	-4416
▁pause	-4417
▁shade	-4418
▁withd	-4419
▁causes	-4420
▁farmer	-4421
▁highly	-4422
▁actions	-4423
▁consent	-4424
▁degrees	-4425
▁knights	-4426
▁tristram	-4427
▁dartagnan	-4428
▁parliament	-4429
anch	-4430
▁bos	-4431
acles	-4432
apped	-4433
illing	-4434
▁range	-4435
▁mounted	-4436
▁parties	-4437
▁congress	-4438
▁singular	-4439
▁sleeping	-4440
▁sentiment	-4441
▁connection	-4442
pes	-4443
▁lan	-4444
▁rib	-4445
▁tow	-4446
▁dece	-4447
▁wolf	-4448
▁arist	-4449
▁bride	-4450
▁lover	-4451
ilities	-4452
▁kissed	-4453
▁nodded	-4454
▁wisdom	-4455
▁womans	-4456
▁intense	-4457
▁murmured	-4458
▁magnificent	-4459
▁sufficiently	-4460
▁aim	-4461
▁lap	-4462
▁mode	-4463
umbled	-4464
▁haste	-4465
▁swall	-4466
▁circle	-4467
▁precise	-4468
▁utterly	-4469
▁wedding	-4470
▁cheerful	-4471
▁proposed	-4472
▁concluded	-4473
▁prisoners	-4474
▁sacrifice	-4475
▁delightful	-4476
▁washington	-4477
▁intellectual	-4478
▁cas	-4479
▁adam	-4480
▁rage	-4481
▁swim	-4482
▁david	-4483
▁stret	-4484
▁instit	-4485
▁loving	-4486
▁feather	-4487
▁privile	-4488
▁reasons	-4489
▁continue	-4490
▁establish	-4491
▁permitted	-4492
▁surrounded	-4493
yn	-4494
▁base	-4495
▁cell	-4496
▁linc	-4497
▁sink	-4498
▁grate	-4499
▁plans	-4500
▁signs	-4501
▁spare	-4502
tending	-4503
▁college	-4504
▁manners	-4505
▁mission	-4506
▁sentence	-4507
▁striking	-4508
▁appointed	-4509
▁extremely	-4510
kind	-4511
uten	-4512
▁bree	-4513
▁ruth	-4514
▁coffe	-4515
▁prepar	-4516
▁refuse	-4517
▁lincoln	-4518
▁request	-4519
▁composed	-4520
▁merchant	-4521
▁slightly	-4522
▁subjects	-4523
▁connected	-4524
▁principal	-4525
▁qualities	-4526
▁destruction	-4527
▁dor	-4528
▁jan	-4529
▁pig	-4530
▁pil	-4531
▁tis	-4532
▁bade	-4533
▁echo	-4534
▁guns	-4535
▁leaf	-4536
▁nest	-4537
▁trif	-4538
▁beaten	-4539
▁reality	-4540
▁whisper	-4541
▁minister	-4542
lest	-4543
▁bob	-4544
inent	-4545
rated	-4546
rates	-4547
▁rout	-4548
▁weve	-4549
▁check	-4550
▁purch	-4551
▁straw	-4552
▁swept	-4553
▁teach	-4554
▁tower	-4555
▁centre	-4556
▁cheeks	-4557
▁market	-4558
▁thinks	-4559
▁utmost	-4560
▁deliber	-4561
▁observe	-4562
▁contract	-4563
▁commission	-4564
▁ax	-4565
▁grie	-4566
▁guil	-4567
▁proc	-4568
lected	-4569
▁solid	-4570
▁coffee	-4571
▁condem	-4572
▁easter	-4573
▁intent	-4574
▁affected	-4575
▁everyone	-4576
▁addressed	-4577
▁destroyed	-4578
▁acquainted	-4579
▁bud	-4580
▁rif	-4581
▁wil	-4582
onies	-4583
▁lawy	-4584
▁sees	-4585
▁subm	-4586
▁subs	-4587
atched	-4588
▁absor	-4589
▁conven	-4590
▁guilty	-4591
▁histor	-4592
▁appreci	-4593
▁created	-4594
▁follows	-4595
▁directed	-4596
▁northern	-4597
▁unexpected	-4598
fall	-4599
upon	-4600
▁boil	-4601
▁glac	-4602
▁scen	-4603
▁trip	-4604
▁vers	-4605
▁flung	-4606
▁polic	-4607
▁shows	-4608
▁arrest	-4609
▁domest	-4610
▁energy	-4611
▁sacred	-4612
▁sighed	-4613
▁alexand	-4614
▁lieuten	-4615
▁extended	-4616
▁confusion	-4617
▁accompanied	-4618
▁difficulties	-4619
gl	-4620
ye	-4621
omp	-4622
▁bath	-4623
▁hers	-4624
▁sear	-4625
▁soil	-4626
▁torn	-4627
▁awake	-4628
▁boots	-4629
▁gazed	-4630
▁guide	-4631
▁horiz	-4632
▁divided	-4633
▁attitude	-4634
▁recovered	-4635
amb	-4636
edy	-4637
ois	-4638
▁ot	-4639
ault	-4640
ived	-4641
mber	-4642
▁sar	-4643
▁unl	-4644
▁kate	-4645
▁raise	-4646
▁trial	-4647
ounding	-4648
▁strain	-4649
▁throne	-4650
▁dancing	-4651
▁departed	-4652
▁mistaken	-4653
▁universal	-4654
ris	-4655
▁err	-4656
▁bern	-4657
▁helen	-4658
▁local	-4659
▁loves	-4660
▁notes	-4661
▁bottle	-4662
▁cultiv	-4663
▁transp	-4664
▁faithful	-4665
▁introduced	-4666
win	-4667
udes	-4668
umber	-4669
▁pipe	-4670
▁silk	-4671
▁bloom	-4672
▁coach	-4673
▁reser	-4674
▁rachel	-4675
▁climbed	-4676
▁nervous	-4677
▁shadows	-4678
▁younger	-4679
▁learning	-4680
▁compelled	-4681
lot	-4682
omen	-4683
rass	-4684
▁clo	-4685
▁duc	-4686
▁nurs	-4687
▁pron	-4688
▁blame	-4689
▁delay	-4690
▁ident	-4691
▁style	-4692
▁beheld	-4693
▁duties	-4694
▁misery	-4695
▁render	-4696
▁vision	-4697
▁commanded	-4698
amm	-4699
bour	-4700
iday	-4701
field	-4702
iform	-4703
▁cave	-4704
▁page	-4705
▁plun	-4706
▁ruin	-4707
▁tied	-4708
▁fleet	-4709
▁repub	-4710
▁pepper	-4711
▁preced	-4712
▁resumed	-4713
▁shaking	-4714
▁announced	-4715
▁convinced	-4716
▁suspicion	-4717
▁accomplished	-4718
ulse	-4719
▁luc	-4720
uable	-4721
▁hint	-4722
▁credit	-4723
▁plants	-4724
▁squire	-4725
▁mystery	-4726
▁visited	-4727
▁enormous	-4728
▁practical	-4729
▁spiritual	-4730
ses	-4731
iven	-4732
mosp	-4733
▁bul	-4734
eenth	-4735
inate	-4736
▁ours	-4737
▁negro	-4738
▁overt	-4739
▁repro	-4740
▁atmosp	-4741
▁propri	-4742
▁devoted	-4743
▁horrible	-4744
▁official	-4745
▁astonishment	-4746
enc	-4747
nal	-4748
lted	-4749
pent	-4750
plex	-4751
▁ner	-4752
▁asce	-4753
▁craw	-4754
▁dise	-4755
▁june	-4756
▁irish	-4757
▁senses	-4758
▁nearest	-4759
▁quality	-4760
▁slavery	-4761
▁realized	-4762
▁republic	-4763
▁agreeable	-4764
▁expedition	-4765
▁reflection	-4766
sec	-4767
itate	-4768
▁flag	-4769
▁fred	-4770
▁pian	-4771
▁tent	-4772
▁folks	-4773
▁shone	-4774
▁button	-4775
▁jumped	-4776
▁modest	-4777
▁product	-4778
▁wretched	-4779
▁gratitude	-4780
▁successful	-4781
▁glo	-4782
ption	-4783
iation	-4784
teenth	-4785
▁sylvia	-4786
▁mankind	-4787
▁breaking	-4788
▁ignorant	-4789
▁troubled	-4790
▁afterward	-4791
▁scattered	-4792
▁instrument	-4793
end	-4794
otes	-4795
▁cig	-4796
▁chat	-4797
▁cler	-4798
▁dang	-4799
▁prec	-4800
▁dwell	-4801
▁fifth	-4802
▁harry	-4803
▁ideal	-4804
▁territ	-4805
standing	-4806
▁fourteen	-4807
▁quarters	-4808
▁rendered	-4809
▁wondering	-4810
onn	-4811
▁tro	-4812
▁gift	-4813
▁trim	-4814
ground	-4815
▁alarm	-4816
▁angel	-4817
▁frame	-4818
▁match	-4819
▁waist	-4820
▁desert	-4821
▁habits	-4822
▁lonely	-4823
▁strict	-4824
▁departure	-4825
▁punishment	-4826
born	-4827
just	-4828
mith	-4829
▁abo	-4830
▁tob	-4831
pleas	-4832
▁clos	-4833
▁craft	-4834
▁erect	-4835
▁lands	-4836
▁refer	-4837
▁sorts	-4838
▁bushes	-4839
▁firmly	-4840
▁isabel	-4841
▁locked	-4842
▁poison	-4843
▁compass	-4844
ems	-4845
tery	-4846
ament	-4847
inity	-4848
▁liqu	-4849
▁obsc	-4850
▁theat	-4851
▁empire	-4852
▁lately	-4853
▁changes	-4854
▁classes	-4855
▁hitherto	-4856
▁separate	-4857
▁troubles	-4858
▁descended	-4859
▁sensation	-4860
cca	-4861
oke	-4862
arse	-4863
gypt	-4864
▁oil	-4865
isite	-4866
▁fund	-4867
▁libr	-4868
▁spark	-4869
▁calcul	-4870
▁mechan	-4871
▁colored	-4872
▁heavens	-4873
▁sounded	-4874
▁examined	-4875
▁likewise	-4876
▁embarrass	-4877
▁movements	-4878
▁hit	-4879
icken	-4880
▁egypt	-4881
▁stout	-4882
▁tells	-4883
▁towns	-4884
▁female	-4885
▁rested	-4886
▁anxiety	-4887
▁inclined	-4888
▁lieutenant	-4889
▁observation	-4890
alt	-4891
bre	-4892
▁ray	-4893
▁leis	-4894
▁quix	-4895
▁elsie	-4896
▁final	-4897
▁burned	-4898
▁results	-4899
▁smaller	-4900
▁uniform	-4901
▁operation	-4902
gs	-4903
▁cam	-4904
▁ned	-4905
sters	-4906
▁sult	-4907
▁term	-4908
▁alike	-4909
▁bones	-4910
▁whirl	-4911
▁fisher	-4912
▁leader	-4913
▁reckon	-4914
▁painful	-4915
▁prosper	-4916
▁forehead	-4917
▁investig	-4918
▁previous	-4919
▁violence	-4920
▁community	-4921
▁astonished	-4922
rous	-4923
▁hay	-4924
▁hid	-4925
▁nav	-4926
▁chim	-4927
▁fulf	-4928
▁ling	-4929
▁lion	-4930
▁offe	-4931
▁risk	-4932
inated	-4933
▁flame	-4934
▁score	-4935
▁steep	-4936
▁hunger	-4937
▁prayer	-4938
▁region	-4939
▁leisure	-4940
▁deserted	-4941
▁husbands	-4942
▁protection	-4943
▁disposition	-4944
ka	-4945
▁tax	-4946
▁vac	-4947
▁answ	-4948
▁blaz	-4949
▁gates	-4950
▁smell	-4951
▁track	-4952
▁veget	-4953
▁cather	-4954
▁infant	-4955
▁polite	-4956
▁sovere	-4957
▁invited	-4958
▁properly	-4959
▁doubtless	-4960
▁neighbors	-4961
lla	-4962
umes	-4963
▁cyr	-4964
▁chin	-4965
▁gets	-4966
▁caval	-4967
▁drown	-4968
▁	-4969
e	-4970
t	-4971
a	-4972
o	-4973
n	-4974
i	-4975
h	-4976
s	-4977
r	-4978
d	-4979
l	-4980
u	-4981
m	-4982
c	-4983
w	-4984
f	-4985
g	-4986
y	-4987
p	-4988
b	-4989
v	-4990
k	-4991
x	-4992
j	-4993
q	-4994
z	-4995
